{
  "version": "1.0",
  "truncation": null,
  "padding": null,
  "added_tokens": [
    {
      "id": 0,
      "content": "<|endoftext|>",
      "single_word": false,
      "lstrip": false,
      "rstrip": false,
      "normalized": false,
      "special": true
    }
  ],
  "normalizer": null,
  "pre_tokenizer": {
    "type": "ByteLevel",
    "add_prefix_space": false,
    "trim_offsets": true,
    "use_regex": true
  },
  "post_processor": {
    "type": "ByteLevel",
    "add_prefix_space": true,
    "trim_offsets": false,
    "use_regex": true
  },
  "decoder": {
    "type": "ByteLevel",
    "add_prefix_space": true,
    "trim_offsets": true,
    "use_regex": true
  },
  "model": {
    "type": "BPE",
    "dropout": null,
    "unk_token": null,
    "continuing_subword_prefix": null,
    "end_of_word_suffix": null,
    "fuse_unk": false,
    "byte_fallback": false,
    "ignore_merges": false,
    "vocab": {
      "<|endoftext|>": 0,
      "!": 1,
      "\"": 2,
      "#": 3,
      "$": 4,
      "%": 5,
      "&": 6,
      "'": 7,
      "(": 8,
      ")": 9,
      "*": 10,
      "+": 11,
      ",": 12,
      "-": 13,
      ".": 14,
      "/": 15,
      "0": 16,
      "1": 17,
      "2": 18,
      "3": 19,
      "4": 20,
      "5": 21,
      "6": 22,
      "7": 23,
      "8": 24,
      "9": 25,
      ":": 26,
      ";": 27,
      "<": 28,
      "=": 29,
      ">": 30,
      "?": 31,
      "@": 32,
      "A": 33,
      "B": 34,
      "C": 35,
      "D": 36,
      "E": 37,
      "F": 38,
      "G": 39,
      "H": 40,
      "I": 41,
      "J": 42,
      "K": 43,
      "L": 44,
      "M": 45,
      "N": 46,
      "O": 47,
      "P": 48,
      "Q": 49,
      "R": 50,
      "S": 51,
      "T": 52,
      "U": 53,
      "V": 54,
      "W": 55,
      "X": 56,
      "Y": 57,
      "Z": 58,
      "[": 59,
      "\\": 60,
      "]": 61,
      "^": 62,
      "_": 63,
      "`": 64,
      "a": 65,
      "b": 66,
      "c": 67,
      "d": 68,
      "e": 69,
      "f": 70,
      "g": 71,
      "h": 72,
      "i": 73,
      "j": 74,
      "k": 75,
      "l": 76,
      "m": 77,
      "n": 78,
      "o": 79,
      "p": 80,
      "q": 81,
      "r": 82,
      "s": 83,
      "t": 84,
      "u": 85,
      "v": 86,
      "w": 87,
      "x": 88,
      "y": 89,
      "z": 90,
      "{": 91,
      "|": 92,
      "}": 93,
      "~": 94,
      "¡": 95,
      "¢": 96,
      "£": 97,
      "¤": 98,
      "¥": 99,
      "¦": 100,
      "§": 101,
      "¨": 102,
      "©": 103,
      "ª": 104,
      "«": 105,
      "¬": 106,
      "®": 107,
      "¯": 108,
      "°": 109,
      "±": 110,
      "²": 111,
      "³": 112,
      "´": 113,
      "µ": 114,
      "¶": 115,
      "·": 116,
      "¸": 117,
      "¹": 118,
      "º": 119,
      "»": 120,
      "¼": 121,
      "½": 122,
      "¾": 123,
      "¿": 124,
      "À": 125,
      "Á": 126,
      "Â": 127,
      "Ã": 128,
      "Ä": 129,
      "Å": 130,
      "Æ": 131,
      "Ç": 132,
      "È": 133,
      "É": 134,
      "Ê": 135,
      "Ë": 136,
      "Ì": 137,
      "Í": 138,
      "Î": 139,
      "Ï": 140,
      "Ð": 141,
      "Ñ": 142,
      "Ò": 143,
      "Ó": 144,
      "Ô": 145,
      "Õ": 146,
      "Ö": 147,
      "×": 148,
      "Ø": 149,
      "Ù": 150,
      "Ú": 151,
      "Û": 152,
      "Ü": 153,
      "Ý": 154,
      "Þ": 155,
      "ß": 156,
      "à": 157,
      "á": 158,
      "â": 159,
      "ã": 160,
      "ä": 161,
      "å": 162,
      "æ": 163,
      "ç": 164,
      "è": 165,
      "é": 166,
      "ê": 167,
      "ë": 168,
      "ì": 169,
      "í": 170,
      "î": 171,
      "ï": 172,
      "ð": 173,
      "ñ": 174,
      "ò": 175,
      "ó": 176,
      "ô": 177,
      "õ": 178,
      "ö": 179,
      "÷": 180,
      "ø": 181,
      "ù": 182,
      "ú": 183,
      "û": 184,
      "ü": 185,
      "ý": 186,
      "þ": 187,
      "ÿ": 188,
      "Ā": 189,
      "ā": 190,
      "Ă": 191,
      "ă": 192,
      "Ą": 193,
      "ą": 194,
      "Ć": 195,
      "ć": 196,
      "Ĉ": 197,
      "ĉ": 198,
      "Ċ": 199,
      "ċ": 200,
      "Č": 201,
      "č": 202,
      "Ď": 203,
      "ď": 204,
      "Đ": 205,
      "đ": 206,
      "Ē": 207,
      "ē": 208,
      "Ĕ": 209,
      "ĕ": 210,
      "Ė": 211,
      "ė": 212,
      "Ę": 213,
      "ę": 214,
      "Ě": 215,
      "ě": 216,
      "Ĝ": 217,
      "ĝ": 218,
      "Ğ": 219,
      "ğ": 220,
      "Ġ": 221,
      "ġ": 222,
      "Ģ": 223,
      "ģ": 224,
      "Ĥ": 225,
      "ĥ": 226,
      "Ħ": 227,
      "ħ": 228,
      "Ĩ": 229,
      "ĩ": 230,
      "Ī": 231,
      "ī": 232,
      "Ĭ": 233,
      "ĭ": 234,
      "Į": 235,
      "į": 236,
      "İ": 237,
      "ı": 238,
      "Ĳ": 239,
      "ĳ": 240,
      "Ĵ": 241,
      "ĵ": 242,
      "Ķ": 243,
      "ķ": 244,
      "ĸ": 245,
      "Ĺ": 246,
      "ĺ": 247,
      "Ļ": 248,
      "ļ": 249,
      "Ľ": 250,
      "ľ": 251,
      "Ŀ": 252,
      "ŀ": 253,
      "Ł": 254,
      "ł": 255,
      "Ń": 256,
      "he": 257,
      "Ġt": 258,
      "Ġa": 259,
      "Ġs": 260,
      "Ġw": 261,
      "nd": 262,
      "Ġthe": 263,
      "ed": 264,
      "Ġand": 265,
      "Ġto": 266,
      "Ġb": 267,
      "in": 268,
      "Ġh": 269,
      "Ġwa": 270,
      "re": 271,
      "ou": 272,
      "Ġf": 273,
      "it": 274,
      "Ġl": 275,
      "Ġc": 276,
      "Ġd": 277,
      "er": 278,
      "Ġhe": 279,
      "Ġm": 280,
      "Ġp": 281,
      "Ġwas": 282,
      "ĠT": 283,
      "om": 284,
      "Ġo": 285,
      "ay": 286,
      "ar": 287,
      "is": 288,
      "ing": 289,
      "il": 290,
      "Ġg": 291,
      "id": 292,
      "at": 293,
      "en": 294,
      "Ġn": 295,
      "Ġsa": 296,
      "Ġha": 297,
      "ĠThe": 298,
      "ĠS": 299,
      "an": 300,
      "im": 301,
      "or": 302,
      "on": 303,
      "Ġit": 304,
      "Ġth": 305,
      "ll": 306,
      "le": 307,
      "ĠH": 308,
      "ot": 309,
      "Ġher": 310,
      "et": 311,
      "ir": 312,
      "ĠShe": 313,
      "es": 314,
      "ĠHe": 315,
      "Ġin": 316,
      "ver": 317,
      "ĠThey": 318,
      "ut": 319,
      "ow": 320,
      "ck": 321,
      "Ġe": 322,
      "Ġu": 323,
      "Ġy": 324,
      "ld": 325,
      "Ġ\"": 326,
      "oo": 327,
      "ily": 328,
      "Ġsaid": 329,
      "ig": 330,
      "Ġr": 331,
      "Ġbe": 332,
      "am": 333,
      "ĠI": 334,
      "Ġst": 335,
      "ke": 336,
      "ce": 337,
      "ve": 338,
      "ith": 339,
      "pp": 340,
      "Ġshe": 341,
      "Lily": 342,
      "Ġwith": 343,
      "On": 344,
      "Ġon": 345,
      "Ġyou": 346,
      "ked": 347,
      "Ġof": 348,
      "ri": 349,
      "Ġpl": 350,
      "nt": 351,
      "Ġhis": 352,
      "ad": 353,
      "Ġso": 354,
      "very": 355,
      "Ġday": 356,
      "Ġthat": 357,
      "Ġup": 358,
      "ĠLily": 359,
      "Ġplay": 360,
      "Ġhad": 361,
      "Ġthey": 362,
      "st": 363,
      "Ġwe": 364,
      "Ġmom": 365,
      "ĠB": 366,
      "Ġfor": 367,
      "'s": 368,
      "el": 369,
      "un": 370,
      "ould": 371,
      "my": 372,
      "The": 373,
      "Ġli": 374,
      "ch": 375,
      "Ġhapp": 376,
      "Ġwant": 377,
      "ent": 378,
      "Ġsh": 379,
      "itt": 380,
      "her": 381,
      "out": 382,
      "Ġnot": 383,
      "Ġdo": 384,
      "ome": 385,
      "se": 386,
      "Ġvery": 387,
      "ly": 388,
      "end": 389,
      "all": 390,
      "ound": 391,
      "Ġwh": 392,
      "Ġk": 393,
      "ime": 394,
      "ittle": 395,
      "Ġtime": 396,
      "al": 397,
      "Ġlittle": 398,
      "Ġne": 399,
      "ĠM": 400,
      "Ġthere": 401,
      "ht": 402,
      "Ġis": 403,
      "Ġhappy": 404,
      "Ġbig": 405,
      "ĠIt": 406,
      "Ġre": 407,
      ".\"": 408,
      "Ġsm": 409,
      "Ġbut": 410,
      "Ġsaw": 411,
      "Ġan": 412,
      "ra": 413,
      "ry": 414,
      "riend": 415,
      "Ġfriend": 416,
      "ĠĊ": 417,
      "Ġas": 418,
      "ack": 419,
      "!\"": 420,
      "'t": 421,
      "One": 422,
      "ide": 423,
      "ake": 424,
      "ug": 425,
      "Ġloo": 426,
      "Ġwere": 427,
      "ter": 428,
      "ved": 429,
      "Ġlo": 430,
      "ore": 431,
      "Once": 432,
      "Ġse": 433,
      "Ġtoo": 434,
      "Ġhim": 435,
      "Ġbo": 436,
      "Ġgo": 437,
      "Ġare": 438,
      "ec": 439,
      "ĠTim": 440,
      "Ġj": 441,
      "Ġwanted": 442,
      "ard": 443,
      "irl": 444,
      "ill": 445,
      "Ġthem": 446,
      "Ġupon": 447,
      "Ġgirl": 448,
      "Ġtheir": 449,
      "Ġout": 450,
      "Ġat": 451,
      "ind": 452,
      "ur": 453,
      "Ġdid": 454,
      "way": 455,
      "fu": 456,
      "Ġsp": 457,
      "ĠA": 458,
      "Ġcould": 459,
      "Ġsmil": 460,
      "hen": 461,
      "Ġhave": 462,
      "ain": 463,
      "hed": 464,
      "art": 465,
      "ĠBen": 466,
      "rom": 467,
      "Ġex": 468,
      "?\"": 469,
      "Ġcan": 470,
      "Ġwent": 471,
      "ic": 472,
      "Ġar": 473,
      "lp": 474,
      "ood": 475,
      "ful": 476,
      "Ġfriends": 477,
      "hing": 478,
      "Ġnam": 479,
      "Ġkn": 480,
      "ight": 481,
      "ĠJ": 482,
      "Ġhelp": 483,
      "Ġsay": 484,
      "Ġall": 485,
      "one": 486,
      "um": 487,
      "ark": 488,
      "Ġback": 489,
      "You": 490,
      "Ġfun": 491,
      "ĠTom": 492,
      "Ġcl": 493,
      "are": 494,
      "Ġno": 495,
      "Ġle": 496,
      "op": 497,
      "Ġsc": 498,
      "Ġnamed": 499,
      "Ġal": 500,
      "elt": 501,
      "oug": 502,
      "Ġman": 503,
      "Ġloved": 504,
      "side": 505,
      "Ġsmiled": 506,
      "ĠOne": 507,
      "Ġtoy": 508,
      "Ġlike": 509,
      "ick": 510,
      "Ġfelt": 511,
      "Ġfe": 512,
      "Ġasked": 513,
      "Ġsome": 514,
      "Ġsee": 515,
      "Ġlooked": 516,
      "Ġme": 517,
      "ame": 518,
      "Ġaround": 519,
      "Ġro": 520,
      "ĠTimmy": 521,
      "omet": 522,
      "ĠW": 523,
      "ure": 524,
      "Ġbr": 525,
      "Ġbir": 526,
      "get": 527,
      "ice": 528,
      "Ġboy": 529,
      "Ġwould": 530,
      "ong": 531,
      "Ġstart": 532,
      "as": 533,
      "Ġbird": 534,
      "Ġsomet": 535,
      ",\"": 536,
      "ings": 537,
      "Ġfa": 538,
      "ade": 539,
      "Ġmake": 540,
      "Ġag": 541,
      "Ġwhat": 542,
      "Ġwor": 543,
      "dd": 544,
      "ĠYou": 545,
      "Ġsays": 546,
      "ĠBut": 547,
      "king": 548,
      "Ġaway": 549,
      "Ġran": 550,
      "own": 551,
      "gether": 552,
      "Ġtre": 553,
      "ag": 554,
      "ared": 555,
      "ie": 556,
      "oud": 557,
      "Ġmade": 558,
      "Ġstarted": 559,
      "if": 560,
      "Ġcar": 561,
      "Ġtogether": 562,
      "Ġsomething": 563,
      "Ġco": 564,
      "ther": 565,
      "Ġpark": 566,
      "Ġsad": 567,
      "Ġother": 568,
      "ited": 569,
      "Ġput": 570,
      "Ġnew": 571,
      "Ġfrom": 572,
      "ell": 573,
      "Ġhug": 574,
      "Ġpr": 575,
      "ble": 576,
      "Ġagain": 577,
      "ook": 578,
      "Ġexc": 579,
      "ach": 580,
      "ĠL": 581,
      "Ġgood": 582,
      "Ġhome": 583,
      "Ġla": 584,
      "Ġmu": 585,
      "ss": 586,
      "Ġwhen": 587,
      "Ġfl": 588,
      "ried": 589,
      "ep": 590,
      "Ġwho": 591,
      "est": 592,
      "Ġthen": 593,
      "Ġfound": 594,
      "Ġch": 595,
      "Ġdec": 596,
      "pped": 597,
      "hat": 598,
      "Ġget": 599,
      "Ġwal": 600,
      "Ġplaying": 601,
      "qu": 602,
      "Ġsw": 603,
      "ought": 604,
      "nn": 605,
      "Ġliked": 606,
      "uck": 607,
      "Ġthings": 608,
      "ĠE": 609,
      "ally": 610,
      "pl": 611,
      "ous": 612,
      "Ġgot": 613,
      "Ġbl": 614,
      "Ġexcited": 615,
      "ro": 616,
      "ided": 617,
      "ave": 618,
      "Ġcame": 619,
      "ara": 620,
      "Ġevery": 621,
      "Ġdecided": 622,
      "Ġyour": 623,
      "Ġdog": 624,
      "ĠMom": 625,
      "ax": 626,
      "Ġscared": 627,
      "ĠD": 628,
      "Ġone": 629,
      "Ġdown": 630,
      "ust": 631,
      "Ġv": 632,
      "Ġfind": 633,
      "They": 634,
      "Ġcare": 635,
      "nna": 636,
      "ouse": 637,
      "ap": 638,
      "Ġbec": 639,
      "ist": 640,
      "Ġthan": 641,
      "ny": 642,
      "Ġfeel": 643,
      "ue": 644,
      "Ġdad": 645,
      "Ġab": 646,
      "Ġwill": 647,
      "Ġmy": 648,
      "arn": 649,
      "Ġlook": 650,
      "udd": 651,
      "our": 652,
      "Ġgr": 653,
      "ers": 654,
      "Ġke": 655,
      "Ġgra": 656,
      "us": 657,
      "Ġdidn": 658,
      "ways": 659,
      "ess": 660,
      "Ġpo": 661,
      "Ġtoys": 662,
      "Ġtook": 663,
      "fe": 664,
      "nder": 665,
      "Ġabout": 666,
      "Ġball": 667,
      "Ġalways": 668,
      "Ġlot": 669,
      "Ġmommy": 670,
      "ant": 671,
      "ĠSam": 672,
      "Ġkne": 673,
      "bb": 674,
      "Ġtree": 675,
      "ise": 676,
      "Ġoutside": 677,
      "ĠF": 678,
      "Ġthought": 679,
      "ite": 680,
      "Ġmore": 681,
      "Ġta": 682,
      "ened": 683,
      "Ġlearn": 684,
      "ret": 685,
      "Ġho": 686,
      "ched": 687,
      "Ġknow": 688,
      "eci": 689,
      "Ġint": 690,
      "ged": 691,
      "Ġsor": 692,
      "Ġcat": 693,
      "Ġtake": 694,
      "Ġlaug": 695,
      "Ġold": 696,
      "ive": 697,
      "ia": 698,
      "ĠMax": 699,
      "Ġspeci": 700,
      "Ġspecial": 701,
      "Ġknew": 702,
      "Ġany": 703,
      "Ġpe": 704,
      "udden": 705,
      "fter": 706,
      "Ġhow": 707,
      "Ġsorry": 708,
      "But": 709,
      "Ġtr": 710,
      "ma": 711,
      "ink": 712,
      "Ġshow": 713,
      "ish": 714,
      "uddenly": 715,
      "Ġrun": 716,
      "au": 717,
      "Ġsl": 718,
      "Ġmuch": 719,
      "and": 720,
      "Ġtw": 721,
      "Ġhand": 722,
      "Ġor": 723,
      "Ġhouse": 724,
      "Ġop": 725,
      "Ġmo": 726,
      "Ġwater": 727,
      "Ġsk": 728,
      "ven": 729,
      "Ġtried": 730,
      "Ġinto": 731,
      "Ġsun": 732,
      "ank": 733,
      "Ġinside": 734,
      "Tom": 735,
      "Ġclo": 736,
      "ate": 737,
      "Ġtold": 738,
      "Ġgave": 739,
      "ump": 740,
      "ty": 741,
      "ĠSara": 742,
      "Ġproud": 743,
      "Ġeach": 744,
      "Ġqu": 745,
      "Ġen": 746,
      "Ġif": 747,
      "ĠWe": 748,
      "Ġover": 749,
      "Ġroom": 750,
      "Ġcouldn": 751,
      "Ġheard": 752,
      "ace": 753,
      "Ġeat": 754,
      "Ġnever": 755,
      "Ġthis": 756,
      "ĠAnna": 757,
      "Ġpret": 758,
      "other": 759,
      "dy": 760,
      "ause": 761,
      "ĠEvery": 762,
      "by": 763,
      "ak": 764,
      "Ġplayed": 765,
      "Ġpick": 766,
      "Mom": 767,
      "ion": 768,
      "etter": 769,
      "Ġhugged": 770,
      "Ġexpl": 771,
      "here": 772,
      "ge": 773,
      "Ġcom": 774,
      "Ġgre": 775,
      "Ġjust": 776,
      "Ġnice": 777,
      "Ġbox": 778,
      "Ġmany": 779,
      "'m": 780,
      "Ġneed": 781,
      "Ġwat": 782,
      "oth": 783,
      "Ġstr": 784,
      "sed": 785,
      "Ġbecause": 786,
      "Ġoff": 787,
      "ile": 788,
      "gry": 789,
      "Ġsmall": 790,
      "iz": 791,
      "Ġbu": 792,
      "ving": 793,
      "Ġlong": 794,
      "Ġjo": 795,
      "Ġsn": 796,
      "ine": 797,
      "Ġfo": 798,
      "imal": 799,
      "Ġanimal": 800,
      "Ġbear": 801,
      "Ġtry": 802,
      "ough": 803,
      "uc": 804,
      "ort": 805,
      "urt": 806,
      "Ġlearned": 807,
      "Ġunt": 808,
      "sel": 809,
      "ild": 810,
      "Ġlove": 811,
      "Ġuntil": 812,
      "ĠMia": 813,
      "Ġkind": 814,
      "ft": 815,
      "Ġbetter": 816,
      "Ġflow": 817,
      "He": 818,
      "ĠJack": 819,
      "Ġend": 820,
      "Ġte": 821,
      "Ġim": 822,
      "urn": 823,
      "ĠAnd": 824,
      "Ġdon": 825,
      "ves": 826,
      "Ġcle": 827,
      "Ġpu": 828,
      "Ġcall": 829,
      "Ġbest": 830,
      "ady": 831,
      "ars": 832,
      "ream": 833,
      "aut": 834,
      "Ġad": 835,
      "Yes": 836,
      "vent": 837,
      "Ġfast": 838,
      "Ġcareful": 839,
      "urp": 840,
      "arden": 841,
      "Ġgarden": 842,
      "ĠC": 843,
      "Ġbeaut": 844,
      "Ġfi": 845,
      "Th": 846,
      "ber": 847,
      "ĠJo": 848,
      "Ġsky": 849,
      "Ġthanked": 850,
      "Ġbra": 851,
      "Ġjump": 852,
      "Ġeven": 853,
      "ies": 854,
      "Ġloud": 855,
      "ase": 856,
      "pt": 857,
      "Ġby": 858,
      "Ġlaughed": 859,
      "em": 860,
      "Ġche": 861,
      "iny": 862,
      "ĠSo": 863,
      "ĠHer": 864,
      "wn": 865,
      "self": 866,
      "Ġgl": 867,
      "lly": 868,
      "It": 869,
      "Ġlist": 870,
      "Ġcome": 871,
      "Ġbeauti": 872,
      "Ġhard": 873,
      "Ġstill": 874,
      "Ġhurt": 875,
      "lew": 876,
      "Ġbeautiful": 877,
      "Ġanimals": 878,
      "Ġlots": 879,
      "Ġfam": 880,
      "Ġway": 881,
      "Ġwo": 882,
      "Ġra": 883,
      "Ġunder": 884,
      "hes": 885,
      "ĠThen": 886,
      "Ġlet": 887,
      "Ġstay": 888,
      "be": 889,
      "ĠFrom": 890,
      "ect": 891,
      "Ġbad": 892,
      "ning": 893,
      "ct": 894,
      "Ġsafe": 895,
      "Ġcol": 896,
      "ool": 897,
      "Ġcu": 898,
      "ast": 899,
      "Ġboth": 900,
      "ople": 901,
      "ock": 902,
      "ĠHis": 903,
      "kay": 904,
      "Ġrem": 905,
      "Ġbook": 906,
      "Tim": 907,
      "Ġangry": 908,
      "ished": 909,
      "Ġlived": 910,
      "Ġits": 911,
      "Ġimp": 912,
      "ree": 913,
      "ress": 914,
      "Ġtwo": 915,
      "Ġpeople": 916,
      "ane": 917,
      "Ġbrave": 918,
      "Ġfamily": 919,
      "Ġshould": 920,
      "No": 921,
      "Ġred": 922,
      "urpr": 923,
      "igh": 924,
      "Ġwalked": 925,
      "Ġsurpr": 926,
      "Ġflew": 927,
      "Ġfin": 928,
      "Ġstor": 929,
      "Ġshare": 930,
      "Ġdan": 931,
      "Ġsoon": 932,
      "ucy": 933,
      "When": 934,
      "Ġfly": 935,
      "ob": 936,
      "xt": 937,
      "Ġpic": 938,
      "Ġdoll": 939,
      "fore": 940,
      "led": 941,
      "Ġkept": 942,
      "Ġcalled": 943,
      "Ben": 944,
      "ip": 945,
      "Ġfore": 946,
      "Ġrock": 947,
      "Let": 948,
      "Ġclean": 949,
      "Ġpretty": 950,
      "ised": 951,
      "Ġdoor": 952,
      "dded": 953,
      "Ġshiny": 954,
      "ĠWhen": 955,
      "Ġgoing": 956,
      "ĠP": 957,
      "Ġkeep": 958,
      "Ġdra": 959,
      "hn": 960,
      "Ġnoise": 961,
      "Ġnow": 962,
      "Ġreal": 963,
      "Ġwind": 964,
      "Ġopened": 965,
      "Ġadvent": 966,
      "Ġturn": 967,
      "Ġide": 968,
      "ummy": 969,
      "so": 970,
      "Ġcry": 971,
      "ary": 972,
      "Ġbefore": 973,
      "Ġcon": 974,
      "age": 975,
      "Ġground": 976,
      "Ġalso": 977,
      "Ġsto": 978,
      "les": 979,
      "illy": 980,
      "Ġey": 981,
      "oon": 982,
      "Ġcolor": 983,
      "Ġexplore": 984,
      "ied": 985,
      "Ġfar": 986,
      "Ġhas": 987,
      "Ġidea": 988,
      "Ġfr": 989,
      "What": 990,
      "kes": 991,
      "imb": 992,
      "th": 993,
      "Ġwar": 994,
      "ture": 995,
      "Ġun": 996,
      "thing": 997,
      "Ġnext": 998,
      "Ġpicked": 999,
      "Ġclimb": 1000,
      "uch": 1001,
      "Ġnodded": 1002,
      "oy": 1003,
      "That": 1004,
      "Ġsmile": 1005,
      "aybe": 1006,
      "Ġthr": 1007,
      "Ġfeeling": 1008,
      "Ġtruck": 1009,
      "Ġwhile": 1010,
      "Ġbed": 1011,
      "ĠDad": 1012,
      "Ġwalking": 1013,
      "eet": 1014,
      "Ġwr": 1015,
      "Ġadventure": 1016,
      "Thank": 1017,
      "ger": 1018,
      "Ġpicture": 1019,
      "ĠLucy": 1020,
      "ac": 1021,
      "Ġbeing": 1022,
      "Ġthink": 1023,
      "ĠG": 1024,
      "Ġgive": 1025,
      "Ġfood": 1026,
      "Ġma": 1027,
      "ff": 1028,
      "iced": 1029,
      "Ġtra": 1030,
      "Ġdif": 1031,
      "Ġbre": 1032,
      "pot": 1033,
      "joy": 1034,
      "Ġbro": 1035,
      "Ġtow": 1036,
      "ted": 1037,
      "ious": 1038,
      "Ġlisten": 1039,
      "Ġclos": 1040,
      "Ġeyes": 1041,
      "Ġwait": 1042,
      "ught": 1043,
      "Ġown": 1044,
      "Ġfish": 1045,
      "Ġstopped": 1046,
      "She": 1047,
      "Ġafter": 1048,
      "Ġlooking": 1049,
      "ting": 1050,
      "Ġflowers": 1051,
      "ember": 1052,
      "Ġdel": 1053,
      "Ġwalk": 1054,
      "Ġhands": 1055,
      "ized": 1056,
      "Ġblue": 1057,
      "Ġslide": 1058,
      "Ġgreat": 1059,
      "Ġever": 1060,
      "Ġshout": 1061,
      "Ġrepl": 1062,
      "Ġmean": 1063,
      "Ġenjoy": 1064,
      "Ġvo": 1065,
      "Ġhead": 1066,
      "irst": 1067,
      "ila": 1068,
      "Ġrain": 1069,
      "ĠSuddenly": 1070,
      "Suddenly": 1071,
      "Ġnear": 1072,
      "Ġnoticed": 1073,
      "Ġdis": 1074,
      "Ġforest": 1075,
      "Ġus": 1076,
      "Ġask": 1077,
      "Ġimport": 1078,
      "Ġremember": 1079,
      "Ġquick": 1080,
      "bbit": 1081,
      "Ġsound": 1082,
      "Ġapp": 1083,
      "llow": 1084,
      "Ġokay": 1085,
      "Ġde": 1086,
      "maz": 1087,
      "Ġwork": 1088,
      "Ġshowed": 1089,
      "Ġwonder": 1090,
      "Ġamaz": 1091,
      "Ġtal": 1092,
      "lease": 1093,
      "Ġstick": 1094,
      "Ġwatch": 1095,
      "Ġimportant": 1096,
      "bbed": 1097,
      "We": 1098,
      "bye": 1099,
      "Ġstrong": 1100,
      "gan": 1101,
      "Ġac": 1102,
      "Anna": 1103,
      "Ġeveryone": 1104,
      "Ġbright": 1105,
      "day": 1106,
      "fere": 1107,
      "Ġrabbit": 1108,
      "Ġdiffere": 1109,
      "Ġboat": 1110,
      "Ġour": 1111,
      "Ġwhere": 1112,
      "Ġright": 1113,
      "Ġsqu": 1114,
      "Ġfollow": 1115,
      "ĠSpot": 1116,
      "Ġreplied": 1117,
      "Ġuse": 1118,
      "Ġdoes": 1119,
      "co": 1120,
      "Ġwatched": 1121,
      "able": 1122,
      "Ġhop": 1123,
      "Ġyell": 1124,
      "Ġface": 1125,
      "ath": 1126,
      "Ġmor": 1127,
      "Ġquickly": 1128,
      "Look": 1129,
      "ĠSue": 1130,
      "ered": 1131,
      "Ġstore": 1132,
      "ĠN": 1133,
      "Ġdress": 1134,
      "So": 1135,
      "Ġsure": 1136,
      "Sara": 1137,
      "Ġbeen": 1138,
      "Ġbecame": 1139,
      "ange": 1140,
      "Ġplace": 1141,
      "ng": 1142,
      "Ġdifferent": 1143,
      "Ġchild": 1144,
      "Ġcuri": 1145,
      "aught": 1146,
      "Ġwarm": 1147,
      "Ġye": 1148,
      "Ġgoodbye": 1149,
      "Ġam": 1150,
      "ĠMommy": 1151,
      "Ġmag": 1152,
      "ĠBob": 1153,
      "Ġhigh": 1154,
      "Ġvoice": 1155,
      "ĠR": 1156,
      "Ġforg": 1157,
      "Ġtell": 1158,
      "Ġblock": 1159,
      "Ġcake": 1160,
      "more": 1161,
      "leep": 1162,
      "Ġanymore": 1163,
      "ndma": 1164,
      "Ġcloser": 1165,
      "Ġcook": 1166,
      "Ġcurious": 1167,
      "itc": 1168,
      "Ġfav": 1169,
      "ount": 1170,
      "Ġbel": 1171,
      "Ġnight": 1172,
      "Ġpull": 1173,
      "Ġopen": 1174,
      "ired": 1175,
      "Her": 1176,
      "imes": 1177,
      "ĠTh": 1178,
      "Ġlea": 1179,
      "ached": 1180,
      "Ġfirst": 1181,
      "Ġpain": 1182,
      "iss": 1183,
      "Ġz": 1184,
      "Jo": 1185,
      "Ġbutter": 1186,
      "Ġhere": 1187,
      "Ġfell": 1188,
      "Ġbus": 1189,
      "Ġkid": 1190,
      "ull": 1191,
      "Ġgrabbed": 1192,
      "Ġru": 1193,
      "Ġsees": 1194,
      "Can": 1195,
      "unny": 1196,
      "Ġsweet": 1197,
      "orn": 1198,
      "Ġonly": 1199,
      "Ġflo": 1200,
      "itchen": 1201,
      "Ġkitchen": 1202,
      "Ġthree": 1203,
      "Ġsand": 1204,
      "Ġhelped": 1205,
      "Ġbirds": 1206,
      "Ġstop": 1207,
      "Ġdr": 1208,
      "Ġcont": 1209,
      "Ġcra": 1210,
      "Ġbit": 1211,
      "Ġba": 1212,
      "Ġhappened": 1213,
      "Ġjumped": 1214,
      "Ġglad": 1215,
      "Ġfire": 1216,
      "Ġmon": 1217,
      "ppy": 1218,
      "Ġsing": 1219,
      "'re": 1220,
      "Ġbeh": 1221,
      "Ġgrass": 1222,
      "Ġtri": 1223,
      "Ġper": 1224,
      "Ġcr": 1225,
      "Ġbrother": 1226,
      "Ġrealized": 1227,
      "ĠDo": 1228,
      "After": 1229,
      "isy": 1230,
      "Ġstory": 1231,
      "air": 1232,
      "Ġmess": 1233,
      "Ġreached": 1234,
      "Ġshouted": 1235,
      "Ġsoft": 1236,
      "akes": 1237,
      "ass": 1238,
      "ĠLet": 1239,
      "Ġyummy": 1240,
      "Ġlady": 1241,
      "Ġgame": 1242,
      "ins": 1243,
      "Ġhaving": 1244,
      "nts": 1245,
      "Ġdraw": 1246,
      "Ġate": 1247,
      "Ġhat": 1248,
      "Ġprin": 1249,
      "Ġpretend": 1250,
      "zy": 1251,
      "Ġpap": 1252,
      "Ġfavor": 1253,
      "Ġthrough": 1254,
      "Ġunderst": 1255,
      "ĠSarah": 1256,
      "where": 1257,
      "Ġcre": 1258,
      "ĠEveryone": 1259,
      "Ġless": 1260,
      "Ġrest": 1261,
      "Ġfavorite": 1262,
      "ĠJane": 1263,
      "Ġready": 1264,
      "ater": 1265,
      "ĠAs": 1266,
      "Ġthing": 1267,
      "Ġlooks": 1268,
      "Ġmaking": 1269,
      "ken": 1270,
      "ather": 1271,
      "ĠCan": 1272,
      "Ġmagic": 1273,
      "Ġkids": 1274,
      "Ġreally": 1275,
      "Ġduck": 1276,
      "Ġpare": 1277,
      "Ġtired": 1278,
      "Ġfix": 1279,
      "Ġpond": 1280,
      "Mommy": 1281,
      "Ġcars": 1282,
      "Ġcut": 1283,
      "Ġworld": 1284,
      "Wow": 1285,
      "Ġdone": 1286,
      "ĠThat": 1287,
      "Ġbegan": 1288,
      "Ġbunny": 1289,
      "Ġmum": 1290,
      "Ġwaved": 1291,
      "bo": 1292,
      "Ġhimself": 1293,
      "Ġcatch": 1294,
      "Ġbutterf": 1295,
      "Ġcoming": 1296,
      "Ġtouch": 1297,
      "Ġfunny": 1298,
      "Ġused": 1299,
      "Ġcried": 1300,
      "fully": 1301,
      "Ġworry": 1302,
      "Ġpart": 1303,
      "Ġwhy": 1304,
      "Ġprom": 1305,
      "uff": 1306,
      "Ġname": 1307,
      "ign": 1308,
      "Ġblocks": 1309,
      "Ġanother": 1310,
      "Ġfill": 1311,
      "Ġste": 1312,
      "Ġflower": 1313,
      "Ġpus": 1314,
      "Ġhold": 1315,
      "ĠJoe": 1316,
      "Ġfro": 1317,
      "Ġhair": 1318,
      "Ġtast": 1319,
      "Ġtop": 1320,
      "Ġseen": 1321,
      "Ġcool": 1322,
      "ster": 1323,
      "oney": 1324,
      "Ġswim": 1325,
      "sh": 1326,
      "rel": 1327,
      "Ġwished": 1328,
      "eddy": 1329,
      "iver": 1330,
      "Ġthank": 1331,
      "Ġmouse": 1332,
      "Ġfloor": 1333,
      "Ġlight": 1334,
      "Ġgreen": 1335,
      "Ġbag": 1336,
      "ient": 1337,
      "Ġdelic": 1338,
      "Ġlikes": 1339,
      "Ġgi": 1340,
      "Ġpaper": 1341,
      "Ġsmell": 1342,
      "Ġfarm": 1343,
      "Timmy": 1344,
      "hy": 1345,
      "Ġparents": 1346,
      "As": 1347,
      "Ġbehind": 1348,
      "ation": 1349,
      "olly": 1350,
      "Ġlesson": 1351,
      "Ġdri": 1352,
      "Don": 1353,
      "Ġsurprise": 1354,
      "Ġdoing": 1355,
      "\".": 1356,
      "Sam": 1357,
      "Ġdro": 1358,
      "Ġhopped": 1359,
      "Ġbow": 1360,
      "Ġsleep": 1361,
      "Ġworked": 1362,
      "Ġhole": 1363,
      "ards": 1364,
      "Ġwindow": 1365,
      "andy": 1366,
      "ĠJohn": 1367,
      "Ġyellow": 1368,
      "Ġread": 1369,
      "Ġtrees": 1370,
      "Ġdin": 1371,
      "Ġdark": 1372,
      "Ġfull": 1373,
      "Ġsho": 1374,
      "Ġlaugh": 1375,
      "Ġrunning": 1376,
      "aisy": 1377,
      "ike": 1378,
      "ued": 1379,
      "ely": 1380,
      "Ġcold": 1381,
      "ren": 1382,
      "Ġswing": 1383,
      "rew": 1384,
      "Ġsat": 1385,
      "Ġspot": 1386,
      "Ġwood": 1387,
      "ul": 1388,
      "Ġsurprised": 1389,
      "Ġremembered": 1390,
      "Ġslow": 1391,
      "aring": 1392,
      "Ġbutterfly": 1393,
      "Ġhappily": 1394,
      "Ġlost": 1395,
      "Ġset": 1396,
      "Ġneeded": 1397,
      "Ġ-": 1398,
      "ons": 1399,
      "Ġice": 1400,
      "Ġyears": 1401,
      "ĠIn": 1402,
      "Ġheld": 1403,
      "Ġbuy": 1404,
      "Hell": 1405,
      "Hello": 1406,
      "Ġmove": 1407,
      "Ġfrog": 1408,
      "Ġanything": 1409,
      "John": 1410,
      "Ġwrong": 1411,
      "Ġcarefully": 1412,
      "uit": 1413,
      "Ġsnow": 1414,
      "Ġhear": 1415,
      "Ġleft": 1416,
      "Ġtall": 1417,
      "Ġhun": 1418,
      "ens": 1419,
      "Ġperf": 1420,
      "Ġdir": 1421,
      "Ġdream": 1422,
      "Ġfair": 1423,
      "Ġfollowed": 1424,
      "Ġair": 1425,
      "Ġenjoyed": 1426,
      "ĠLila": 1427,
      "Ġel": 1428,
      "Ġfinished": 1429,
      "Ġcast": 1430,
      "Ġchildren": 1431,
      "cess": 1432,
      "Ġbug": 1433,
      "Ġbooks": 1434,
      "Ġhot": 1435,
      "Ġtable": 1436,
      "inally": 1437,
      "ined": 1438,
      "Ġherself": 1439,
      "Ġhill": 1440,
      "Ġhid": 1441,
      "reed": 1442,
      "ĠAfter": 1443,
      "Ġarri": 1444,
      "Ġunderstand": 1445,
      "Ġfriendly": 1446,
      "ds": 1447,
      "Ġarm": 1448,
      "Ġcontin": 1449,
      "Ġclose": 1450,
      "Ġplease": 1451,
      "Ġforgot": 1452,
      "ross": 1453,
      "Ġmight": 1454,
      "Ġcolors": 1455,
      "Ġelse": 1456,
      "ĠBenny": 1457,
      "Ġdelicious": 1458,
      "Ġbroken": 1459,
      "Ġbuild": 1460,
      "Ġwants": 1461,
      "asure": 1462,
      "Ġrel": 1463,
      "lf": 1464,
      "ash": 1465,
      "Ġgone": 1466,
      "sp": 1467,
      "Ġgent": 1468,
      "ield": 1469,
      "OK": 1470,
      "Ġbaby": 1471,
      "room": 1472,
      "Then": 1473,
      "atter": 1474,
      "Ġarrived": 1475,
      "Ġcreat": 1476,
      "Ġtight": 1477,
      "'ll": 1478,
      "Ġleaves": 1479,
      "Ġable": 1480,
      "ĠNow": 1481,
      "Ġsong": 1482,
      "Ġwonderful": 1483,
      "Ġsomeone": 1484,
      "Ġyes": 1485,
      "Ġwall": 1486,
      "ner": 1487,
      "Ġsquir": 1488,
      "Ġfilled": 1489,
      "av": 1490,
      "ĠSally": 1491,
      "Ġcontinued": 1492,
      "ich": 1493,
      "ĠThere": 1494,
      "ask": 1495,
      "Ġlion": 1496,
      "Ġcount": 1497,
      "Ġbreak": 1498,
      "Ġsquirrel": 1499,
      "Ġagreed": 1500,
      "Ġju": 1501,
      "Ġpink": 1502,
      "ĠMaybe": 1503,
      "Ġscary": 1504,
      "Ġpoin": 1505,
      "Ġfall": 1506,
      "From": 1507,
      "ey": 1508,
      "Ġenough": 1509,
      "Jack": 1510,
      "Ġcastle": 1511,
      "icy": 1512,
      "ries": 1513,
      "ee": 1514,
      "Ġgrandma": 1515,
      "man": 1516,
      "ĠDaisy": 1517,
      "Ġvis": 1518,
      "Ġstayed": 1519,
      "Ġhungry": 1520,
      "Ġmakes": 1521,
      "Ġmoment": 1522,
      "Ġmorning": 1523,
      "ĠEm": 1524,
      "Ġsmiles": 1525,
      "Ġfinally": 1526,
      "Ġfight": 1527,
      "Ġwet": 1528,
      "Ġcomp": 1529,
      "Ġcookies": 1530,
      "oup": 1531,
      "Ġgetting": 1532,
      "Ġturned": 1533,
      "Ġsometimes": 1534,
      "gon": 1535,
      "row": 1536,
      "app": 1537,
      "Ġpictures": 1538,
      "Ġpi": 1539,
      "Ġtalk": 1540,
      "Ġbeach": 1541,
      "rot": 1542,
      "Ġcream": 1543,
      "ama": 1544,
      "Ġclimbed": 1545,
      "Ġothers": 1546,
      "ĠThis": 1547,
      "Ġtrying": 1548,
      "ĠTommy": 1549,
      "Ġlistened": 1550,
      "Ġclot": 1551,
      "Ġballoon": 1552,
      "oom": 1553,
      "Ġdinner": 1554,
      "Ġamazing": 1555,
      "ĠK": 1556,
      "Ġtail": 1557,
      "Ġclothes": 1558,
      "ced": 1559,
      "Ġmus": 1560,
      "ĠWhat": 1561,
      "Ġfew": 1562,
      "ance": 1563,
      "apped": 1564,
      "This": 1565,
      "His": 1566,
      "Ġmar": 1567,
      "Ġmet": 1568,
      "Ġpuppy": 1569,
      "lc": 1570,
      "At": 1571,
      "Ġmother": 1572,
      "ence": 1573,
      "Ġdaddy": 1574,
      "Ġperfect": 1575,
      "oring": 1576,
      "amp": 1577,
      "Ġasks": 1578,
      "Ġspl": 1579,
      "ĠBilly": 1580,
      "Ġwhite": 1581,
      "key": 1582,
      "ĠGra": 1583,
      "red": 1584,
      "Ġfur": 1585,
      "ĠJen": 1586,
      "Ġalone": 1587,
      "ctor": 1588,
      "Ġpet": 1589,
      "uffy": 1590,
      "Ġsail": 1591,
      "Ġwasn": 1592,
      "ucky": 1593,
      "Ġsit": 1594,
      "Ġbrought": 1595,
      "Ġeverything": 1596,
      "Ġsear": 1597,
      "ister": 1598,
      "Ġpol": 1599,
      "Ġjoy": 1600,
      "der": 1601,
      "Oh": 1602,
      "Ġgrow": 1603,
      "ott": 1604,
      "Ġroll": 1605,
      "Ġstrange": 1606,
      "Ġpulled": 1607,
      "ated": 1608,
      "Ġwaited": 1609,
      "Ġpie": 1610,
      "wl": 1611,
      "Ġspark": 1612,
      "Ġdeep": 1613,
      "Ġride": 1614,
      "Ġdanger": 1615,
      "Ġwoods": 1616,
      "ĠTo": 1617,
      "Ġplan": 1618,
      "Ġwon": 1619,
      "Ġleave": 1620,
      "Ġruns": 1621,
      "Ġmusic": 1622,
      "me": 1623,
      "Ġthinks": 1624,
      "Ġamazed": 1625,
      "Ġvisit": 1626,
      "ower": 1627,
      "zz": 1628,
      "Ġhide": 1629,
      "ang": 1630,
      "Ġteddy": 1631,
      "Ġcloud": 1632,
      "eter": 1633,
      "Maybe": 1634,
      "Ġfox": 1635,
      "Ġpat": 1636,
      "ever": 1637,
      "os": 1638,
      "Ġpen": 1639,
      "Ġsilly": 1640,
      "ugg": 1641,
      "Max": 1642,
      "Ġflying": 1643,
      "Ġliving": 1644,
      "ope": 1645,
      "Ġshap": 1646,
      "Ġem": 1647,
      "Ġtowards": 1648,
      "gs": 1649,
      "Ġtreat": 1650,
      "Ġowner": 1651,
      "med": 1652,
      "ames": 1653,
      "ises": 1654,
      "Ġpa": 1655,
      "thy": 1656,
      "Ġpre": 1657,
      "Ġgu": 1658,
      "Ġside": 1659,
      "Okay": 1660,
      "Ġland": 1661,
      "Ġgrate": 1662,
      "Ġshared": 1663,
      "Ġfield": 1664,
      "Ġlake": 1665,
      "ained": 1666,
      "Ġmoney": 1667,
      "Ġqui": 1668,
      "Ġpaint": 1669,
      "cket": 1670,
      "igg": 1671,
      "Ġfaster": 1672,
      "Ġpromised": 1673,
      "Ġgrateful": 1674,
      "Ġparty": 1675,
      "Ġsister": 1676,
      "Ġbelie": 1677,
      "Ġdance": 1678,
      "Ġbott": 1679,
      "ĠAmy": 1680,
      "avy": 1681,
      "Ġrace": 1682,
      "Ġmoral": 1683,
      "ix": 1684,
      "eces": 1685,
      "Ġcup": 1686,
      "cle": 1687,
      "Ġtreasure": 1688,
      "Ġbroke": 1689,
      "up": 1690,
      "Ġpieces": 1691,
      "Ġcandy": 1692,
      "Ġjob": 1693,
      "Ġquiet": 1694,
      "unch": 1695,
      "Ġworried": 1696,
      "Ġblank": 1697,
      "Ġcolorful": 1698,
      "sw": 1699,
      "Ġtrain": 1700,
      "Ġbigger": 1701,
      "ze": 1702,
      "Ġbran": 1703,
      "orm": 1704,
      "Ġslowly": 1705,
      "Ġansw": 1706,
      "Ġwear": 1707,
      "outh": 1708,
      "Ġgif": 1709,
      "Ġdolls": 1710,
      "Ġwelc": 1711,
      "ually": 1712,
      "Ġreach": 1713,
      "Ġblanket": 1714,
      "Ġmouth": 1715,
      "ling": 1716,
      "Ġmust": 1717,
      "Ġve": 1718,
      "Ġsnack": 1719,
      "ol": 1720,
      "Ġsuch": 1721,
      "Ġcho": 1722,
      "Ġbike": 1723,
      "fort": 1724,
      "Ġele": 1725,
      "Ġeverywhere": 1726,
      "Ġsmart": 1727,
      "Ġscream": 1728,
      "ased": 1729,
      "Ġpro": 1730,
      "Ġblack": 1731,
      "less": 1732,
      "ph": 1733,
      "Ġriver": 1734,
      "Ġnap": 1735,
      "ire": 1736,
      "Ġplant": 1737,
      "ĠAll": 1738,
      "Ġbar": 1739,
      "Ġjoin": 1740,
      "Ġmagical": 1741,
      "Sure": 1742,
      "Ġpot": 1743,
      "Ġje": 1744,
      "Ġsign": 1745,
      "Ġprincess": 1746,
      "Ġhelping": 1747,
      "Ġdangerous": 1748,
      "Ġwin": 1749,
      "ĠJim": 1750,
      "cked": 1751,
      "set": 1752,
      "Ġthrew": 1753,
      "Ġdirty": 1754,
      "ming": 1755,
      "Ġcarrot": 1756,
      "Ġtwins": 1757,
      "Ġbowl": 1758,
      "Ġdragon": 1759,
      "Ġcrying": 1760,
      "Ġtower": 1761,
      "ipped": 1762,
      "Ġbite": 1763,
      "Ġhoped": 1764,
      "Ġdoctor": 1765,
      "ored": 1766,
      "Ġmost": 1767,
      "Ġteac": 1768,
      "ident": 1769,
      "Ġspr": 1770,
      "ĠFl": 1771,
      "Ġsame": 1772,
      "Ġfarmer": 1773,
      "Ġheavy": 1774,
      "Ġbee": 1775,
      "Ġwords": 1776,
      "Ġmonster": 1777,
      "Ġmonkey": 1778,
      "Ġacc": 1779,
      "bble": 1780,
      "ear": 1781,
      "de": 1782,
      "ere": 1783,
      "Ġheal": 1784,
      "Ġacross": 1785,
      "Ġcoll": 1786,
      "Ġbath": 1787,
      "Why": 1788,
      "Ġdisapp": 1789,
      "Hi": 1790,
      "Ġbuck": 1791,
      "Ġhig": 1792,
      "Ġfruit": 1793,
      "Ġstepped": 1794,
      "Mia": 1795,
      "Ġstre": 1796,
      "Ġclosed": 1797,
      "Ġstuck": 1798,
      "eared": 1799,
      "ĠDaddy": 1800,
      "Ġheart": 1801,
      "Ġtown": 1802,
      "Ġfeels": 1803,
      "ĠJill": 1804,
      "chool": 1805,
      "Ġbelieve": 1806,
      "Ġwouldn": 1807,
      "asket": 1808,
      "ĠMr": 1809,
      "Ġbasket": 1810,
      "Ġmix": 1811,
      "Ġteacher": 1812,
      "Ġcray": 1813,
      "Ġcour": 1814,
      "Ġbutt": 1815,
      "Ġatt": 1816,
      "Ġeating": 1817,
      "Ġhit": 1818,
      "Ġschool": 1819,
      "iting": 1820,
      "Ġchair": 1821,
      "Ġpushed": 1822,
      "Ġyard": 1823,
      "Ġbrown": 1824,
      "ĠMolly": 1825,
      "Ġgentle": 1826,
      "Ġpack": 1827,
      "Ġmin": 1828,
      "Ġcourse": 1829,
      "Ġwithout": 1830,
      "Ġneigh": 1831,
      "br": 1832,
      "Ġclapped": 1833,
      "issed": 1834,
      "ord": 1835,
      "ts": 1836,
      "umb": 1837,
      "Ġhigher": 1838,
      "Ġpers": 1839,
      "pping": 1840,
      "Ġsmo": 1841,
      "Ġsec": 1842,
      "Ġaccident": 1843,
      "Ġneighb": 1844,
      "Ġswings": 1845,
      "Ġfairy": 1846,
      "Lila": 1847,
      "ier": 1848,
      "vel": 1849,
      "Ġtoday": 1850,
      "orrow": 1851,
      "Ġgames": 1852,
      "Ġwelcome": 1853,
      "Ġdry": 1854,
      "Ġstand": 1855,
      "ors": 1856,
      "Ġnoises": 1857,
      "Ġdrove": 1858,
      "Ġpocket": 1859,
      "Ġthrow": 1860,
      "ventually": 1861,
      "Ġsuddenly": 1862,
      "Ġforget": 1863,
      "Ġlon": 1864,
      "Ġturns": 1865,
      "Ġhugs": 1866,
      "Ġpiece": 1867,
      "Ġcheered": 1868,
      "ract": 1869,
      "Ġben": 1870,
      "Ġfree": 1871,
      "Ġlonely": 1872,
      "Ġfence": 1873,
      "Ġhappen": 1874,
      "Ġwings": 1875,
      "cy": 1876,
      "ho": 1877,
      "ourn": 1878,
      "Ġneck": 1879,
      "Ġlonger": 1880,
      "Ġjourn": 1881,
      "Ġsang": 1882,
      "ible": 1883,
      "ead": 1884,
      "Ġexplained": 1885,
      "Ġsoup": 1886,
      "Ġsea": 1887,
      "Ġalong": 1888,
      "Ġcorn": 1889,
      "Finally": 1890,
      "Ġstories": 1891,
      "Ġlate": 1892,
      "Ġupset": 1893,
      "Ġwell": 1894,
      "itting": 1895,
      "Ġshoes": 1896,
      "Ġinst": 1897,
      "Ġsecret": 1898,
      "Ġadventures": 1899,
      "Ġmat": 1900,
      "Ġmiss": 1901,
      "phant": 1902,
      "Ġtrou": 1903,
      "Ġcaught": 1904,
      "Ġstars": 1905,
      "Ġwhe": 1906,
      "ches": 1907,
      "Ġsinging": 1908,
      "Ġph": 1909,
      "Ġrocks": 1910,
      "oun": 1911,
      "Ġbucket": 1912,
      "Ġlunch": 1913,
      "ape": 1914,
      "ces": 1915,
      "Ġdropped": 1916,
      "Ġswam": 1917,
      "Ġdist": 1918,
      "Ġwish": 1919,
      "Ġyoung": 1920,
      "Ġshook": 1921,
      "ocked": 1922,
      "Ġelephant": 1923,
      "Ġdrink": 1924,
      "Ġbring": 1925,
      "Ġmoved": 1926,
      "yard": 1927,
      "ment": 1928,
      "Ġplac": 1929,
      "Ġbelong": 1930,
      "Ġjuice": 1931,
      "Ġnaught": 1932,
      "ountain": 1933,
      "Ġstar": 1934,
      "Ġnaughty": 1935,
      "Ġbackyard": 1936,
      "ek": 1937,
      "llo": 1938,
      "Ġmine": 1939,
      "fused": 1940,
      "Ġjar": 1941,
      "Ġstreet": 1942,
      "ĠGrandma": 1943,
      "bow": 1944,
      "Ġtom": 1945,
      "Ġpast": 1946,
      "Ġkey": 1947,
      "ĠThank": 1948,
      "Ġtakes": 1949,
      "Ġtaking": 1950,
      "Ġapple": 1951,
      "Do": 1952,
      "Ġshapes": 1953,
      "Ġpurp": 1954,
      "ĠMary": 1955,
      "Ġorange": 1956,
      "Ġowl": 1957,
      "Ġexploring": 1958,
      "ward": 1959,
      "Ġshop": 1960,
      "Ġcou": 1961,
      "ush": 1962,
      "ub": 1963,
      "Ġnothing": 1964,
      "Ġexp": 1965,
      "Ġnearby": 1966,
      "Ġpig": 1967,
      "bby": 1968,
      "ĠEmma": 1969,
      "Ġwise": 1970,
      "Ġnose": 1971,
      "Ġwondered": 1972,
      "Ġresp": 1973,
      "Ġwoke": 1974,
      "ĠFluffy": 1975,
      "ung": 1976,
      "Ġes": 1977,
      "Ġcomes": 1978,
      "Ġseemed": 1979,
      "Ġcow": 1980,
      "col": 1981,
      "Ġbusy": 1982,
      "Ġaf": 1983,
      "Ġdes": 1984,
      "Ġsounds": 1985,
      "Ġmail": 1986,
      "Ġbench": 1987,
      "Ġtiny": 1988,
      "Ġrelie": 1989,
      "Ġsick": 1990,
      "Ġinv": 1991,
      "Ġstu": 1992,
      "Ġpurple": 1993,
      "Ġmark": 1994,
      "cing": 1995,
      "Ġrainbow": 1996,
      "aughter": 1997,
      "And": 1998,
      "Ġthough": 1999,
      "Ġarms": 2000,
      "Ġca": 2001,
      "adow": 2002,
      "Ġnest": 2003,
      "Ġmad": 2004,
      "ions": 2005,
      "fish": 2006,
      "ose": 2007,
      "ining": 2008,
      "Ġmil": 2009,
      "Ġyear": 2010,
      "sy": 2011,
      "pper": 2012,
      "thday": 2013,
      "ese": 2014,
      "Ġ3": 2015,
      "Ġsitting": 2016,
      "cks": 2017,
      "Ġob": 2018,
      "Ġdriver": 2019,
      "Ġholding": 2020,
      "Ġcarry": 2021,
      "Ġround": 2022,
      "Ġking": 2023,
      "raid": 2024,
      "read": 2025,
      "Ġafraid": 2026,
      "ity": 2027,
      "ittens": 2028,
      "Ġbranch": 2029,
      "Ġforever": 2030,
      "ĠInside": 2031,
      "Ġcir": 2032,
      "Ġwhist": 2033,
      "Ġhello": 2034,
      "Ġgift": 2035,
      "Ġkite": 2036,
      "weet": 2037,
      "Ġspoon": 2038,
      "ĠO": 2039,
      "board": 2040,
      "Ġboun": 2041,
      "vered": 2042,
      "Ġcute": 2043,
      "Ġdaughter": 2044,
      "Ġpeace": 2045,
      "Ġshell": 2046,
      "to": 2047,
      "Ġlift": 2048,
      "idge": 2049,
      "Ġfit": 2050,
      "Ġcoat": 2051,
      "Ġswimming": 2052,
      "Ġhuge": 2053,
      "uched": 2054,
      "Ġtouched": 2055,
      "ĠCome": 2056,
      "Ġbread": 2057,
      "Ġpatient": 2058,
      "Of": 2059,
      "ours": 2060,
      "let": 2061,
      "Ġletter": 2062,
      "Ġbirthday": 2063,
      "Ġgrab": 2064,
      "Ġpromise": 2065,
      "Ġrelieved": 2066,
      "ĠFinally": 2067,
      "cer": 2068,
      "sting": 2069,
      "Ġaccidentally": 2070,
      "Ġgives": 2071,
      "Ġwra": 2072,
      "eth": 2073,
      "Ġband": 2074,
      "Ġputs": 2075,
      "Ġhope": 2076,
      "Ġmilk": 2077,
      "Ġbottle": 2078,
      "gg": 2079,
      "Ġcreature": 2080,
      "Hey": 2081,
      "Ġfing": 2082,
      "shine": 2083,
      "Ġdays": 2084,
      "Ġcheese": 2085,
      "Ġintere": 2086,
      "Ġlife": 2087,
      "Ġgigg": 2088,
      "Ġlaughing": 2089,
      "Ġcozy": 2090,
      "Ġcollect": 2091,
      "alm": 2092,
      "Ġlucky": 2093,
      "Ġonto": 2094,
      "Ġexciting": 2095,
      "Ġkick": 2096,
      "Ġret": 2097,
      "Ġmist": 2098,
      "ĠSammy": 2099,
      "Ġpower": 2100,
      "Ġspin": 2101,
      "Ġcave": 2102,
      "Ġcomfort": 2103,
      "Ġdisco": 2104,
      "Ġjourney": 2105,
      "Ġact": 2106,
      "Ġsunshine": 2107,
      "og": 2108,
      "Ġsunny": 2109,
      "gged": 2110,
      "Ġfan": 2111,
      "Ġear": 2112,
      "Ġbush": 2113,
      "Later": 2114,
      "Ġinstead": 2115,
      "Ġreturn": 2116,
      "ped": 2117,
      "ten": 2118,
      "arp": 2119,
      "Ġpudd": 2120,
      "Ġpointed": 2121,
      "Ġinc": 2122,
      "ness": 2123,
      "Ġsmiling": 2124,
      "Ġimag": 2125,
      "ize": 2126,
      "Ġeas": 2127,
      "Ġsearched": 2128,
      "els": 2129,
      "Ġhoney": 2130,
      "itch": 2131,
      "Ġsharp": 2132,
      "Ġroad": 2133,
      "Ġanyone": 2134,
      "Tommy": 2135,
      "Ġhor": 2136,
      "ĠSoon": 2137,
      "Ġtalked": 2138,
      "ĠMama": 2139,
      "Ġspo": 2140,
      "oman": 2141,
      "Ġbought": 2142,
      "ball": 2143,
      "Ġlater": 2144,
      "Ġsuc": 2145,
      "Ġwoman": 2146,
      "Ġsandw": 2147,
      "Ġplane": 2148,
      "Ġgather": 2149,
      "blem": 2150,
      "Ġproblem": 2151,
      "Ġsnowman": 2152,
      "Ġperson": 2153,
      "unt": 2154,
      "mer": 2155,
      "Ġwatching": 2156,
      "Ġcrayons": 2157,
      "Ġsmelled": 2158,
      "Ġhealthy": 2159,
      "Ġrope": 2160,
      "Ġtasty": 2161,
      "irt": 2162,
      "Ġtrouble": 2163,
      "Good": 2164,
      "Bob": 2165,
      "Ġmeet": 2166,
      "Ġce": 2167,
      "Ġsu": 2168,
      "Ġducks": 2169,
      "round": 2170,
      "Ġpop": 2171,
      "Ġloves": 2172,
      "Ġkiss": 2173,
      "Ġpile": 2174,
      "itten": 2175,
      "Ġclouds": 2176,
      "een": 2177,
      "Ġent": 2178,
      "Ġapples": 2179,
      "Ġshining": 2180,
      "Ġpar": 2181,
      "ove": 2182,
      "Ġstorm": 2183,
      "Ġspid": 2184,
      "Ġbutton": 2185,
      "Ġinteresting": 2186,
      "Ġmach": 2187,
      "Ġzoom": 2188,
      "amed": 2189,
      "Ġorgan": 2190,
      "Ġcard": 2191,
      "Ġadm": 2192,
      "Ġzoo": 2193,
      "Ġpres": 2194,
      "ĠTweet": 2195,
      "Ġclever": 2196,
      "Ġwide": 2197,
      "Ġres": 2198,
      "ont": 2199,
      "Ġfeather": 2200,
      "owed": 2201,
      "Ġmatter": 2202,
      "Ġpill": 2203,
      "ale": 2204,
      "ĠSomet": 2205,
      "eb": 2206,
      "ndp": 2207,
      "Ġbark": 2208,
      "Ġhon": 2209,
      "Ġpract": 2210,
      "Ġprot": 2211,
      "aur": 2212,
      "Ġap": 2213,
      "lla": 2214,
      "Ġrespect": 2215,
      "Ġeag": 2216,
      "Ġfront": 2217,
      "Lucy": 2218,
      "ex": 2219,
      "epend": 2220,
      "Ġscreamed": 2221,
      "ĠWith": 2222,
      "Ġgoes": 2223,
      "ail": 2224,
      "Ġmud": 2225,
      "Ġseat": 2226,
      "Ġprotect": 2227,
      "Ġneighbor": 2228,
      "Ġsaf": 2229,
      "Ġshr": 2230,
      "Ġquest": 2231,
      "Ġdanced": 2232,
      "Ġsur": 2233,
      "Ġhorse": 2234,
      "isa": 2235,
      "Ġtrip": 2236,
      "Ġanswer": 2237,
      "Ġpuzz": 2238,
      "Ġasleep": 2239,
      "Ġvill": 2240,
      "Ġpresent": 2241,
      "Ġmyster": 2242,
      "Ġspotted": 2243,
      "St": 2244,
      "Ġtries": 2245,
      "Ġappeared": 2246,
      "Ġsnake": 2247,
      "Come": 2248,
      "erly": 2249,
      "Ġwhole": 2250,
      "Ġteach": 2251,
      "Ġpath": 2252,
      "Ġgiant": 2253,
      "Ġwild": 2254,
      "Ġlovely": 2255,
      "ching": 2256,
      "Ġcheer": 2257,
      "Ġphone": 2258,
      "Ġslid": 2259,
      "Ġplaces": 2260,
      "Ġwhich": 2261,
      "Ġdi": 2262,
      "Ġwearing": 2263,
      "Ġteeth": 2264,
      "Ġdirt": 2265,
      "Ġforgive": 2266,
      "Ġrolled": 2267,
      "oose": 2268,
      "Every": 2269,
      "Ġconfused": 2270,
      "izz": 2271,
      "Just": 2272,
      "ĠGo": 2273,
      "ular": 2274,
      "Ġtasted": 2275,
      "Ġminut": 2276,
      "ones": 2277,
      "Ġgently": 2278,
      "Ġimpress": 2279,
      "Ġval": 2280,
      "Ġcouch": 2281,
      "Ġtun": 2282,
      "Ġfaces": 2283,
      "Ġthin": 2284,
      "Jim": 2285,
      "Ġrude": 2286,
      "ert": 2287,
      "ĠMittens": 2288,
      "ĠHow": 2289,
      "ssed": 2290,
      "Ġpass": 2291,
      "Ġcalm": 2292,
      "Ġlive": 2293,
      "itty": 2294,
      "Ġmind": 2295,
      "Ġspent": 2296,
      "ndpa": 2297,
      "Ġsplas": 2298,
      "Ġpretended": 2299,
      "Ġmed": 2300,
      "Ġpan": 2301,
      "cean": 2302,
      "Ġash": 2303,
      "In": 2304,
      "Ġocean": 2305,
      "ĠJimmy": 2306,
      "Ġfeet": 2307,
      "Ġsal": 2308,
      "Ġsupp": 2309,
      "Ġlad": 2310,
      "nic": 2311,
      "la": 2312,
      "Molly": 2313,
      "Ġser": 2314,
      "Ġpour": 2315,
      "Ġpicnic": 2316,
      "Ġlay": 2317,
      "Ġcoin": 2318,
      "Ġmachine": 2319,
      "unk": 2320,
      "Ġsack": 2321,
      "Ġcorner": 2322,
      "Ġring": 2323,
      "Ġwrite": 2324,
      "Ġdrive": 2325,
      "Ġworm": 2326,
      "Mum": 2327,
      "Ġbugs": 2328,
      "Ġspider": 2329,
      "Ġoven": 2330,
      "Ġwave": 2331,
      "Ġchocol": 2332,
      "Ġemb": 2333,
      "Ġpush": 2334,
      "hile": 2335,
      "Ġbuilding": 2336,
      "Ġsmooth": 2337,
      "Ġlast": 2338,
      "Ġign": 2339,
      "Ġtomorrow": 2340,
      "Ġcookie": 2341,
      "Ġhelpful": 2342,
      "umber": 2343,
      "Ġcart": 2344,
      "arge": 2345,
      "Ġcann": 2346,
      "Ġhiding": 2347,
      "Ġrec": 2348,
      "als": 2349,
      "Ġwip": 2350,
      "Ġfurry": 2351,
      "Ġladder": 2352,
      "Ġremind": 2353,
      "Ġcannot": 2354,
      "Ġmountain": 2355,
      "lex": 2356,
      "Ġblew": 2357,
      "ator": 2358,
      "Ġtid": 2359,
      "Ġban": 2360,
      "Ġbell": 2361,
      "Ġbubble": 2362,
      "ato": 2363,
      "Ġchick": 2364,
      "Ġpaw": 2365,
      "Ġspread": 2366,
      "Ġtalking": 2367,
      "ife": 2368,
      "Ġfighting": 2369,
      "ĠEmily": 2370,
      "Ġfold": 2371,
      "Ġfinish": 2372,
      "ĠSometimes": 2373,
      "Ġtool": 2374,
      "Ġdelight": 2375,
      "Ġembar": 2376,
      "Ġleaf": 2377,
      "Ġembarra": 2378,
      "Soon": 2379,
      "Ġsel": 2380,
      "Ġwore": 2381,
      "Ġpool": 2382,
      "Ġrob": 2383,
      "Ġfoot": 2384,
      "Ġpuddle": 2385,
      "Ġsongs": 2386,
      "Ġshy": 2387,
      "Ġknee": 2388,
      "Ġeventually": 2389,
      "ighed": 2390,
      "Ġspray": 2391,
      "Ġrep": 2392,
      "Ġwaiting": 2393,
      "Ġneckl": 2394,
      "ĠCh": 2395,
      "Ġmaybe": 2396,
      "Ġchocolate": 2397,
      "Ġ'": 2398,
      "mo": 2399,
      "Ġnet": 2400,
      "Ġchased": 2401,
      "Ġbat": 2402,
      "Ġwhenever": 2403,
      "Ġfixed": 2404,
      "oph": 2405,
      "Ġstret": 2406,
      "ĠJust": 2407,
      "Ġbarked": 2408,
      "Ġlarge": 2409,
      "ĠJenny": 2410,
      "ult": 2411,
      "Ġselfish": 2412,
      "Ġstring": 2413,
      "Ġcoo": 2414,
      "Ġsol": 2415,
      "ĠPlease": 2416,
      "lebr": 2417,
      "ĠEverywhere": 2418,
      "Ġwash": 2419,
      "Ġstir": 2420,
      "Ġpeaceful": 2421,
      "Ġwhistle": 2422,
      "Ġcelebr": 2423,
      "Ġcarrots": 2424,
      "Ġant": 2425,
      "Ġcross": 2426,
      "ĠSt": 2427,
      "urse": 2428,
      "Ġspe": 2429,
      "Ġcreative": 2430,
      "Ġplate": 2431,
      "Ġtaste": 2432,
      "Ġbanan": 2433,
      "Ġhum": 2434,
      "Ġgen": 2435,
      "Ġrobot": 2436,
      "Ġtidy": 2437,
      "My": 2438,
      "ĠLe": 2439,
      "Ġmoon": 2440,
      "Ġknocked": 2441,
      "Ġcrab": 2442,
      "iger": 2443,
      "Ġtrust": 2444,
      "orry": 2445,
      "Ġhears": 2446,
      "Ġtells": 2447,
      "box": 2448,
      "Dad": 2449,
      "Ġcloth": 2450,
      "Ġvillage": 2451,
      "Ġmissed": 2452,
      "ungle": 2453,
      "Ġstone": 2454,
      "Ġstra": 2455,
      "Ġcolour": 2456,
      "airs": 2457,
      "Ġjungle": 2458,
      "Ġembarrassed": 2459,
      "Ġstep": 2460,
      "Ġrocket": 2461,
      "Ġdecor": 2462,
      "ĠTheir": 2463,
      "ĠSome": 2464,
      "Please": 2465,
      "Ġspicy": 2466,
      "Ġnecklace": 2467,
      "elly": 2468,
      "old": 2469,
      "ĠJake": 2470,
      "Ġtreats": 2471,
      "Ġshelf": 2472,
      "Ġscar": 2473,
      "getable": 2474,
      "Ġhel": 2475,
      "umpy": 2476,
      "arm": 2477,
      "Ġshirt": 2478,
      "Ġvegetable": 2479,
      "Ġforward": 2480,
      "dge": 2481,
      "Ġsplash": 2482,
      "Ġtea": 2483,
      "llie": 2484,
      "Ġsticks": 2485,
      "Ġlegs": 2486,
      "Ġemp": 2487,
      "Now": 2488,
      "Ġempty": 2489,
      "Mama": 2490,
      "inted": 2491,
      "Ġsave": 2492,
      "Ġjumping": 2493,
      "hnn": 2494,
      "Ġnut": 2495,
      "Ġple": 2496,
      "Ġgray": 2497,
      "Ġsharing": 2498,
      "Ġwhis": 2499,
      "Ġgrew": 2500,
      "Ġber": 2501,
      "Ġsheep": 2502,
      "ĠAl": 2503,
      "Ġtightly": 2504,
      "aking": 2505,
      "Ġlanded": 2506,
      "most": 2507,
      "ĠAnn": 2508,
      "Ġgener": 2509,
      "Ġdeter": 2510,
      "Ġmeant": 2511,
      "Ġashamed": 2512,
      "Ġbal": 2513,
      "Ġnods": 2514,
      "Ġdisappo": 2515,
      "Ġpillow": 2516,
      "Ġdeterm": 2517,
      "Ġalmost": 2518,
      "ird": 2519,
      "ĠLisa": 2520,
      "ĠTV": 2521,
      "Ġhonest": 2522,
      "ying": 2523,
      "hnny": 2524,
      "Ġpizz": 2525,
      "ian": 2526,
      "Ġsour": 2527,
      "Be": 2528,
      "Ġgold": 2529,
      "ĠWhy": 2530,
      "ĠDon": 2531,
      "Ġjew": 2532,
      "Ġcarried": 2533,
      "dle": 2534,
      "Ġbreath": 2535,
      "Ġmeadow": 2536,
      "To": 2537,
      "Ġunderstood": 2538,
      "ano": 2539,
      "ĠOn": 2540,
      "Ġstood": 2541,
      "Ġthese": 2542,
      "Ġvan": 2543,
      "erp": 2544,
      "Ġpolice": 2545,
      "Ġyelled": 2546,
      "Ġdrew": 2547,
      "Ġseed": 2548,
      "den": 2549,
      "Ġpay": 2550,
      "ground": 2551,
      "Stop": 2552,
      "Ġkitten": 2553,
      "Ġwhisp": 2554,
      "Ġsnacks": 2555,
      "Ġprince": 2556,
      "ned": 2557,
      "Ġsuccess": 2558,
      "'d": 2559,
      "Ġfear": 2560,
      "Ġbored": 2561,
      "Ġsparkly": 2562,
      "gly": 2563,
      "Ġav": 2564,
      "Ġlem": 2565,
      "ital": 2566,
      "aul": 2567,
      "Ġgun": 2568,
      "Ġugly": 2569,
      "ony": 2570,
      "Sarah": 2571,
      "Ġshore": 2572,
      "Ġgas": 2573,
      "Ġvase": 2574,
      "Ġdisappointed": 2575,
      "Ġhosp": 2576,
      "hin": 2577,
      "Ġline": 2578,
      "ork": 2579,
      "ustr": 2580,
      "kin": 2581,
      "Ġhours": 2582,
      "ĠTeddy": 2583,
      "Ġhospital": 2584,
      "Ġgroup": 2585,
      "ĠRex": 2586,
      "Ġclass": 2587,
      "Ġpizza": 2588,
      "itter": 2589,
      "vous": 2590,
      "Ġseek": 2591,
      "Ġplants": 2592,
      "iff": 2593,
      "Ġblow": 2594,
      "Ġknowing": 2595,
      "Ġhidden": 2596,
      "Ġgenerous": 2597,
      "Ġreturned": 2598,
      "Ġcries": 2599,
      "oop": 2600,
      "Ġtent": 2601,
      "Ġpuzzle": 2602,
      "ĠZ": 2603,
      "ĠEven": 2604,
      "Ġpri": 2605,
      "Ġeasy": 2606,
      "Ġmessy": 2607,
      "Ġfeed": 2608,
      "Ġpoor": 2609,
      "Ġfrustr": 2610,
      "Ġsleepy": 2611,
      "Ġglass": 2612,
      "Ġstanding": 2613,
      "Ġpin": 2614,
      "Ġwaves": 2615,
      "Ġjelly": 2616,
      "Ġtest": 2617,
      "Ġsighed": 2618,
      "There": 2619,
      "Ġfancy": 2620,
      "Ġsandwich": 2621,
      "Ġflag": 2622,
      "Ġburn": 2623,
      "Sorry": 2624,
      "Ġthankful": 2625,
      "Where": 2626,
      "Ġbedroom": 2627,
      "Ġpowerful": 2628,
      "Ġship": 2629,
      "Ġtick": 2630,
      "ĠMum": 2631,
      "Ġtaught": 2632,
      "ĠTogether": 2633,
      "body": 2634,
      "Ġscarf": 2635,
      "Ġsold": 2636,
      "Ġkissed": 2637,
      "Ġner": 2638,
      "Ġcirc": 2639,
      "lower": 2640,
      "ĠBe": 2641,
      "Ġcrown": 2642,
      "Ġpir": 2643,
      "Ġtwirl": 2644,
      "era": 2645,
      "Ġboring": 2646,
      "Ġdeer": 2647,
      "Ġmot": 2648,
      "ote": 2649,
      "Jane": 2650,
      "Ġnervous": 2651,
      "Ġreg": 2652,
      "Ġcaterp": 2653,
      "Ġcaterpill": 2654,
      "aid": 2655,
      "mb": 2656,
      "Ġmysterious": 2657,
      "Ġtears": 2658,
      "arl": 2659,
      "Ġspoil": 2660,
      "Ġfrustrated": 2661,
      "Ġpolite": 2662,
      "Are": 2663,
      "af": 2664,
      "work": 2665,
      "assed": 2666,
      "Ġpassed": 2667,
      "Ġscr": 2668,
      "Ġcloset": 2669,
      "oof": 2670,
      "Ġoften": 2671,
      "Ġyourself": 2672,
      "Ġhur": 2673,
      "Ġdrop": 2674,
      "Ġminutes": 2675,
      "Ġhang": 2676,
      "obby": 2677,
      "Ġdetermined": 2678,
      "Ġfig": 2679,
      "Ġleg": 2680,
      "Ġgets": 2681,
      "pack": 2682,
      "Ġrad": 2683,
      "Ġclown": 2684,
      "Ġexcite": 2685,
      "ensive": 2686,
      "selves": 2687,
      "issors": 2688,
      "ina": 2689,
      "Ġfil": 2690,
      "Ġgate": 2691,
      "Ġcap": 2692,
      "Ġexpensive": 2693,
      "Ġbridge": 2694,
      "Ġchew": 2695,
      "Ġdancing": 2696,
      "iddle": 2697,
      "Ġchest": 2698,
      "Ġgathered": 2699,
      "light": 2700,
      "Ġscissors": 2701,
      "Ġpicks": 2702,
      "Ġflut": 2703,
      "Ġsaved": 2704,
      "ets": 2705,
      "Ġfinger": 2706,
      "illed": 2707,
      "usie": 2708,
      "Ġwagged": 2709,
      "ates": 2710,
      "ĠOK": 2711,
      "ual": 2712,
      "Ġesc": 2713,
      "izzy": 2714,
      "Ġcaterpillar": 2715,
      "Ġwolf": 2716,
      "ĠLeo": 2717,
      "Ġboss": 2718,
      "Ġwander": 2719,
      "osaur": 2720,
      "Ġgrumpy": 2721,
      "Ġdrum": 2722,
      "Ġcomfortable": 2723,
      "Ġlock": 2724,
      "Ġpacked": 2725,
      "Ġqueen": 2726,
      "ond": 2727,
      "Ġhopping": 2728,
      "Ġworking": 2729,
      "ots": 2730,
      "Ġspend": 2731,
      "Ġdogs": 2732,
      "Ġmistake": 2733,
      "Ġexcitement": 2734,
      "Ġanswered": 2735,
      "Ġlit": 2736,
      "Their": 2737,
      "Ġmummy": 2738,
      "Ġdinosaur": 2739,
      "Ġstuff": 2740,
      "Ġtaken": 2741,
      "Ġcand": 2742,
      "ĠBl": 2743,
      "Ġknight": 2744,
      "Ġvegetables": 2745,
      "uce": 2746,
      "Ġmedic": 2747,
      "Ġwheel": 2748,
      "ĠPeter": 2749,
      "Ġdrawing": 2750,
      "Ġwalks": 2751,
      "Ġmiddle": 2752,
      "Ġpress": 2753,
      "Ġbone": 2754,
      "ggs": 2755,
      "Ġeggs": 2756,
      "Ġtrue": 2757,
      "ĠBr": 2758,
      "Ġlazy": 2759,
      "que": 2760,
      "Ġgiggled": 2761,
      "Ġlose": 2762,
      "Ġcrawl": 2763,
      "Ġones": 2764,
      "Ġruined": 2765,
      "Ġfruits": 2766,
      "Ġmir": 2767,
      "Ġwis": 2768,
      "Who": 2769,
      "Ġdest": 2770,
      "ugar": 2771,
      "Ġclap": 2772,
      "Ġmedicine": 2773,
      "Ġadd": 2774,
      "Ġnumber": 2775,
      "Ġbathroom": 2776,
      "Ġsmelly": 2777,
      "ecially": 2778,
      "iness": 2779,
      "Ġasking": 2780,
      "Ġexam": 2781,
      "Ġfake": 2782,
      "Ġsugar": 2783,
      "Ġfeathers": 2784,
      "Ġsight": 2785,
      "Ġstones": 2786,
      "Ġbrush": 2787,
      "Ġgar": 2788,
      "pecially": 2789,
      "Ġlicked": 2790,
      "Ġsweetie": 2791,
      "Ġtape": 2792,
      "Ġespecially": 2793,
      "ror": 2794,
      "aser": 2795,
      "Ġteam": 2796,
      "Ġweak": 2797,
      "Ġchange": 2798,
      "ushed": 2799,
      "Ġbody": 2800,
      "Ġdistance": 2801,
      "Ġnod": 2802,
      "Ġroar": 2803,
      "ella": 2804,
      "Ġdrank": 2805,
      "Ġpleased": 2806,
      "Me": 2807,
      "Ġlead": 2808,
      "elp": 2809,
      "Ġmatch": 2810,
      "Ġbake": 2811,
      "Ġpray": 2812,
      "Ġcri": 2813,
      "Ġcage": 2814,
      "Ġsplashed": 2815,
      "Ġfluffy": 2816,
      "Ġballs": 2817,
      "Ġmic": 2818,
      "ĠIf": 2819,
      "Ġyours": 2820,
      "ĠNo": 2821,
      "Ġmov": 2822,
      "ating": 2823,
      "Ġlying": 2824,
      "Ġcalling": 2825,
      "aged": 2826,
      "Ġfis": 2827,
      "Ġsailed": 2828,
      "Ġmoving": 2829,
      "uggest": 2830,
      "Ġlemon": 2831,
      "Ġglow": 2832,
      "hip": 2833,
      "Ġtie": 2834,
      "Ġdisappeared": 2835,
      "Ġboard": 2836,
      "Ġsell": 2837,
      "Ġnoisy": 2838,
      "Ġsuggest": 2839,
      "Ġglue": 2840,
      "ha": 2841,
      "Ġwrote": 2842,
      "Ġsoap": 2843,
      "Ġclear": 2844,
      "ete": 2845,
      "Jimmy": 2846,
      "ĠJohnny": 2847,
      "Ġrelax": 2848,
      "Ġrid": 2849,
      "Ġweek": 2850,
      "Ġok": 2851,
      "Ġeld": 2852,
      "Help": 2853,
      "Ġdecide": 2854,
      "Ġbecome": 2855,
      "Ġincred": 2856,
      "Ġmoms": 2857,
      "Ġmeasure": 2858,
      "Ġjuicy": 2859,
      "Ġmirror": 2860,
      "Ġcovered": 2861,
      "alous": 2862,
      "Ġplayground": 2863,
      "Ġshows": 2864,
      "Ġjealous": 2865,
      "yal": 2866,
      "Ġhorn": 2867,
      "Ġquestions": 2868,
      "Ġfine": 2869,
      "Ġrare": 2870,
      "Ġcontent": 2871,
      "Ġboys": 2872,
      "ination": 2873,
      "Ġcraw": 2874,
      "imp": 2875,
      "Ġeager": 2876,
      "Ġcrawled": 2877,
      "Sally": 2878,
      "Ġtowel": 2879,
      "ĠAt": 2880,
      "Ġcheck": 2881,
      "ipp": 2882,
      "Ġdig": 2883,
      "Ġskipped": 2884,
      "enny": 2885,
      "Ġfather": 2886,
      "Ġind": 2887,
      "Ġcleaned": 2888,
      "Ġord": 2889,
      "Jill": 2890,
      "Ġext": 2891,
      "Ġfamous": 2892,
      "Ġeye": 2893,
      "Ġtwist": 2894,
      "Ġneeds": 2895,
      "Ġshoot": 2896,
      "Ġjoke": 2897,
      "ĠBlue": 2898,
      "Ġgarage": 2899,
      "Ġincredible": 2900,
      "ĠEnd": 2901,
      "Ġtrucks": 2902,
      "eez": 2903,
      "Ġed": 2904,
      "umbled": 2905,
      "Ġbubbles": 2906,
      "Ġsword": 2907,
      "Ġtiger": 2908,
      "Ġloyal": 2909,
      "illi": 2910,
      "Ġhose": 2911,
      "ory": 2912,
      "Ġmap": 2913,
      "Ġorganized": 2914,
      "Ġunus": 2915,
      "Ġhappening": 2916,
      "ti": 2917,
      "Ġrealised": 2918,
      "Ġbranches": 2919,
      "Ġlamp": 2920,
      "Ġword": 2921,
      "fic": 2922,
      "Ġborrow": 2923,
      "Ġtag": 2924,
      "Ġdiscovered": 2925,
      "Ġmotor": 2926,
      "Ġunusual": 2927,
      "Ġdish": 2928,
      "ipper": 2929,
      "Ġhurts": 2930,
      "Ġwand": 2931,
      "Ġextra": 2932,
      "cil": 2933,
      "Ġsil": 2934,
      "Ġfrown": 2935,
      "Ġknife": 2936,
      "Ġrich": 2937,
      "Ġpencil": 2938,
      "Ġelderly": 2939,
      "Ġthick": 2940,
      "Ġballoons": 2941,
      "lies": 2942,
      "?\".": 2943,
      "Ġmod": 2944,
      "Ġwhale": 2945,
      "Ġcover": 2946,
      "Ġdiffic": 2947,
      "Ġlouder": 2948,
      "Ġfigure": 2949,
      "port": 2950,
      "Ġonce": 2951,
      "Ġcost": 2952,
      "asing": 2953,
      "Spot": 2954,
      "Billy": 2955,
      "ique": 2956,
      "Ġfour": 2957,
      "Ġguess": 2958,
      "Gra": 2959,
      "Ġbottom": 2960,
      "keep": 2961,
      "Ġdifficult": 2962,
      "ĠKitty": 2963,
      "Ġaw": 2964,
      "Ġtoug": 2965,
      "Ġlaughs": 2966,
      "Ġflash": 2967,
      "Ġcolourful": 2968,
      "Ġunique": 2969,
      "ĠSp": 2970,
      "Ġang": 2971,
      "Ġchase": 2972,
      "Ġoffered": 2973,
      "Ġcompet": 2974,
      "Ġarg": 2975,
      "Ġbalance": 2976,
      "ery": 2977,
      "Ġham": 2978,
      "Ġshake": 2979,
      "Ġboxes": 2980,
      "fast": 2981,
      "imed": 2982,
      "cept": 2983,
      "ĠMark": 2984,
      "Ġspun": 2985,
      "Ġadded": 2986,
      "Ġturt": 2987,
      "Ġwrapped": 2988,
      "Sue": 2989,
      "Ġhero": 2990,
      "Ġbarn": 2991,
      "Ġadventur": 2992,
      "Ġjewel": 2993,
      "Ġstraw": 2994,
      "Ġberries": 2995,
      "ately": 2996,
      "Ġcoins": 2997,
      "Ġkindness": 2998,
      "Ġgiving": 2999,
      "Ġbreakfast": 3000,
      "Joe": 3001,
      "Ġchicken": 3002,
      "Ġlog": 3003,
      "ages": 3004,
      "Ġbloom": 3005,
      "Ġbanana": 3006,
      "ature": 3007,
      "Ġbald": 3008,
      "Ġgoat": 3009,
      "ured": 3010,
      "rag": 3011,
      "Ġmighty": 3012,
      "Ġnorm": 3013,
      "Ġadventurous": 3014,
      "ĠLittle": 3015,
      "Ġswan": 3016,
      "Ġdolp": 3017,
      "ye": 3018,
      "Ġmanaged": 3019,
      "Ġfool": 3020,
      "Ġfalls": 3021,
      "land": 3022,
      "Ġpump": 3023,
      "Ġlifted": 3024,
      "Ġtough": 3025,
      "ym": 3026,
      "How": 3027,
      "Ġcher": 3028,
      "Ġpointing": 3029,
      "ject": 3030,
      "Ġhelps": 3031,
      "uggled": 3032,
      "Well": 3033,
      "Ġdizzy": 3034,
      "Here": 3035,
      "Ġcircle": 3036,
      "Ġpee": 3037,
      "Ġwagon": 3038,
      "alk": 3039,
      "olog": 3040,
      "Ġharder": 3041,
      "Ġdreamed": 3042,
      "ouses": 3043,
      "Ġsmoke": 3044,
      "keeper": 3045,
      "Ġcompetit": 3046,
      "Ġweird": 3047,
      "Ġmelt": 3048,
      "Ġloudly": 3049,
      "Ġnormal": 3050,
      "Ġbelonged": 3051,
      "oppy": 3052,
      "Ġbossy": 3053,
      "Ġgrown": 3054,
      "Ġmarket": 3055,
      "Ġimpressed": 3056,
      "Ġfat": 3057,
      "Ġears": 3058,
      "Ġwrap": 3059,
      "Ġskin": 3060,
      "Ġapolog": 3061,
      "Ġshape": 3062,
      "Ġhats": 3063,
      "ilt": 3064,
      "Ġknows": 3065,
      "Amy": 3066,
      "Ġicy": 3067,
      "ĠSusie": 3068,
      "Ġstubb": 3069,
      "Ġlearning": 3070,
      "und": 3071,
      "emo": 3072,
      "Ġagainst": 3073,
      "Ġsearch": 3074,
      "Ġdepend": 3075,
      "Ġhunt": 3076,
      "ĠMy": 3077,
      "Ġhouses": 3078,
      "Ġscare": 3079,
      "Ġenjoying": 3080,
      "pes": 3081,
      "Ġmeans": 3082,
      "anged": 3083,
      "Ġharm": 3084,
      "Ġfavour": 3085,
      "Ġslipped": 3086,
      "ĠBrown": 3087,
      "ĠRose": 3088,
      "Ġbrothers": 3089,
      "Al": 3090,
      "head": 3091,
      "Ġrough": 3092,
      "Ġpainting": 3093,
      "Ġedge": 3094,
      "reen": 3095,
      "Ġchoose": 3096,
      "Ġbrilli": 3097,
      "Ġgrace": 3098,
      "Ġrecord": 3099,
      "Ġbuttons": 3100,
      "Ġref": 3101,
      "Ġfright": 3102,
      "Ġstubborn": 3103,
      "apping": 3104,
      "ready": 3105,
      "Ġfavourite": 3106,
      "Ġshells": 3107,
      "Ġfoolish": 3108,
      "Ġjack": 3109,
      "Ġsafely": 3110,
      "Ġbrilliant": 3111,
      "Ġbatter": 3112,
      "Ġcudd": 3113,
      "ĠToday": 3114,
      "Ġtoast": 3115,
      "Ġfridge": 3116,
      "Ġcircles": 3117,
      "omed": 3118,
      "Ġspace": 3119,
      "Ġstri": 3120,
      "iv": 3121,
      "Ġguit": 3122,
      "Ġter": 3123,
      "Ġcro": 3124,
      "Ġhappiness": 3125,
      "rage": 3126,
      "Ġalready": 3127,
      "Ġrat": 3128,
      "Ġbitter": 3129,
      "Ġturtle": 3130,
      "aw": 3131,
      "erry": 3132,
      "Ġyog": 3133,
      "Ġwalls": 3134,
      "Ġoffice": 3135,
      "Ġlibr": 3136,
      "Ġwake": 3137,
      "Ġlaw": 3138,
      "Ġsounded": 3139,
      "Ġisland": 3140,
      "Ġstrawber": 3141,
      "edient": 3142,
      "Ġmixed": 3143,
      "Ġdreams": 3144,
      "Ġegg": 3145,
      "Ġsaying": 3146,
      "Ġclay": 3147,
      "Mummy": 3148,
      "Ġcrack": 3149,
      "Ġcheerful": 3150,
      "ext": 3151,
      "arth": 3152,
      "erg": 3153,
      "Ġtrunk": 3154,
      "iable": 3155,
      "Ġbags": 3156,
      "Ġcam": 3157,
      "Ġroof": 3158,
      "Ġunl": 3159,
      "!\".": 3160,
      "Ġsmaller": 3161,
      "Ġvalu": 3162,
      "Ġmovie": 3163,
      "Ġescape": 3164,
      "ache": 3165,
      "Ġnosy": 3166,
      "Ġfier": 3167,
      "Ġguitar": 3168,
      "Ġshark": 3169,
      "Ġnotice": 3170,
      "Ġaccept": 3171,
      "Ġpoured": 3172,
      "sc": 3173,
      "Ġparrot": 3174,
      "laimed": 3175,
      "Ġstronger": 3176,
      "Ġcab": 3177,
      "Ġstream": 3178,
      "Ġmagn": 3179,
      "Ġobedient": 3180,
      "Ġtunn": 3181,
      "Ġcrayon": 3182,
      "Ġinvited": 3183,
      "arry": 3184,
      "Ġweal": 3185,
      "Ġnicely": 3186,
      "Ġuseful": 3187,
      "Ġdependable": 3188,
      "Ġlow": 3189,
      "Ġtools": 3190,
      "Ġreliable": 3191,
      "Ġcabin": 3192,
      "Ġfierce": 3193,
      "Ġtimes": 3194,
      "Ġproudly": 3195,
      "Ġsuggested": 3196,
      "Ġterri": 3197,
      "Ġthu": 3198,
      "Ġcounted": 3199,
      "ĠMrs": 3200,
      "Ġfingers": 3201,
      "Ġscrat": 3202,
      "Ġrose": 3203,
      "Ġcity": 3204,
      "ado": 3205,
      "Ġindepend": 3206,
      "Ġshowing": 3207,
      "ĠBobby": 3208,
      "ola": 3209,
      "Ġstudy": 3210,
      "Ġpil": 3211,
      "ĠBu": 3212,
      "Ġlean": 3213,
      "irp": 3214,
      "Ġbushes": 3215,
      "Ġdesign": 3216,
      "Ġabove": 3217,
      "Ġexplored": 3218,
      "Ġhoop": 3219,
      "wards": 3220,
      "Ġtummy": 3221,
      "Ġbirdie": 3222,
      "Ġexclaimed": 3223,
      "Ġjoined": 3224,
      "Ġfrightened": 3225,
      "corn": 3226,
      "Ġstumbled": 3227,
      "Ġdead": 3228,
      "Ġtwig": 3229,
      "Ġgem": 3230,
      "Ġkicked": 3231,
      "Ġfountain": 3232,
      "Ġspinning": 3233,
      "Ġspoiled": 3234,
      "na": 3235,
      "cient": 3236,
      "Ġfrag": 3237,
      "Ġdough": 3238,
      "Ġlocked": 3239,
      "ĠElla": 3240,
      "Ġlights": 3241,
      "Ġsuccessful": 3242,
      "Ġthemselves": 3243,
      "Ġstove": 3244,
      "Ġusing": 3245,
      "Ġcop": 3246,
      "Ġmem": 3247,
      "Ġwiped": 3248,
      "kn": 3249,
      "Ġjog": 3250,
      "Ġbrightly": 3251,
      "Ġenorm": 3252,
      "Ġexcitedly": 3253,
      "Ġenormous": 3254,
      "Ġrode": 3255,
      "Ġzip": 3256,
      "Ġvaluable": 3257,
      "az": 3258,
      "Ġtele": 3259,
      "Ġindependent": 3260,
      "amond": 3261,
      "Ġancient": 3262,
      "Ġyarn": 3263,
      "Ġbeak": 3264,
      "Ġswe": 3265,
      "Ġcleaning": 3266,
      "Ġfre": 3267,
      "ĠEllie": 3268,
      "ĠYour": 3269,
      "Ġthoughtful": 3270,
      "Ġkinds": 3271,
      "Ġdelicate": 3272,
      "anut": 3273,
      "Ġjam": 3274,
      "Ġbuilt": 3275,
      "Ġresc": 3276,
      "ention": 3277,
      "Ġseem": 3278,
      "Ġeng": 3279,
      "Ġdiamond": 3280,
      "Ġreminded": 3281,
      "ither": 3282,
      "Ġsteal": 3283,
      "Ġow": 3284,
      "Ġpopcorn": 3285,
      "inal": 3286,
      "ĠNemo": 3287,
      "Ġshadow": 3288,
      "ipe": 3289,
      "Ġthirst": 3290,
      "orge": 3291,
      "Ġholds": 3292,
      "Ġshone": 3293,
      "Ġsniff": 3294,
      "Ġfragile": 3295,
      "Ġenvel": 3296,
      "Ġways": 3297,
      "mbre": 3298,
      "oot": 3299,
      "ĠPete": 3300,
      "Ġadmired": 3301,
      "Ġumbre": 3302,
      "Ġstat": 3303,
      "Ġflute": 3304,
      "iginal": 3305,
      "Ġbean": 3306,
      "Ġtank": 3307,
      "Ġbounce": 3308,
      "ĠDan": 3309,
      "Ġpractice": 3310,
      "uth": 3311,
      "Em": 3312,
      "upid": 3313,
      "known": 3314,
      "Ġbees": 3315,
      "ĠFin": 3316,
      "Ġmarble": 3317,
      "eeze": 3318,
      "Ġflashlight": 3319,
      "Ġchanged": 3320,
      "Ġgrandpa": 3321,
      "ĠDucky": 3322,
      "Ġcostum": 3323,
      "illa": 3324,
      "Ġwhispered": 3325,
      "Ġbump": 3326,
      "Ġrubb": 3327,
      "Ġfinding": 3328,
      "Ġbrace": 3329,
      "Ġpainted": 3330,
      "Ġhelm": 3331,
      "Ġpumpkin": 3332,
      "Ġhalf": 3333,
      "Ġlab": 3334,
      "umbers": 3335,
      "Ġsolve": 3336,
      "Ġcamera": 3337,
      "Ġpige": 3338,
      "ray": 3339,
      "cod": 3340,
      "Ġoriginal": 3341,
      "Ġserious": 3342,
      "Ġstamp": 3343,
      "Ġthirsty": 3344,
      "Ġsuit": 3345,
      "Ġunknown": 3346,
      "Ġtomato": 3347,
      "Ġstupid": 3348,
      "uring": 3349,
      "Ġstairs": 3350,
      "Ġpost": 3351,
      "Ġdove": 3352,
      "Ġplayful": 3353,
      "Ġraced": 3354,
      "Ġyet": 3355,
      "Ġbeet": 3356,
      "Ġsleeping": 3357,
      "Ġguard": 3358,
      "Ġopens": 3359,
      "Ġcomput": 3360,
      "Ġwealthy": 3361,
      "ĠU": 3362,
      "Ġclum": 3363,
      "Ġpicking": 3364,
      "Ġsalad": 3365,
      "Ġcone": 3366,
      "Ġenc": 3367,
      "Ġseeds": 3368,
      "inary": 3369,
      "gu": 3370,
      "Ġpebble": 3371,
      "Ġmis": 3372,
      "Ġchose": 3373,
      "Ġson": 3374,
      "Ġcrocod": 3375,
      "eorge": 3376,
      "ilty": 3377,
      "Ġallowed": 3378,
      "Ġpeanut": 3379,
      "Ġmole": 3380,
      "Ġguilty": 3381,
      "Ġforth": 3382,
      "Ġstops": 3383,
      "Ġangel": 3384,
      "Ġdolphin": 3385,
      "Ġflex": 3386,
      "Ġcheap": 3387,
      "Ġnurse": 3388,
      "Ġdelighted": 3389,
      "dom": 3390,
      "Ġwashed": 3391,
      "Ġsearching": 3392,
      "Ġnature": 3393,
      "iew": 3394,
      "Ġdoesn": 3395,
      "ĠFred": 3396,
      "com": 3397,
      "Ġclock": 3398,
      "Ġmetal": 3399,
      "Ġcere": 3400,
      "âĢ": 3401,
      "Ġmoder": 3402,
      "Ġsunf": 3403,
      "Ġcompass": 3404,
      "anger": 3405,
      "Ġjolly": 3406,
      "Ġmarch": 3407,
      "ines": 3408,
      "Ġboats": 3409,
      "Ġhammer": 3410,
      "vice": 3411,
      "Ġthose": 3412,
      "ugged": 3413,
      "Ġview": 3414,
      "Ġnumbers": 3415,
      "isk": 3416,
      "Ġleaving": 3417,
      "Ġarrow": 3418,
      "Ġtelling": 3419,
      "Ġclumsy": 3420,
      "See": 3421,
      "Ġrushed": 3422,
      "ĠBobo": 3423,
      "Ġfresh": 3424,
      "Ġhay": 3425,
      "Ġdull": 3426,
      "ience": 3427,
      "oomy": 3428,
      "Ġpant": 3429,
      "Ġprint": 3430,
      "Ġhairy": 3431,
      "ĠTweety": 3432,
      "ĠWhenever": 3433,
      "Ġdust": 3434,
      "Ġmissing": 3435,
      "het": 3436,
      "ĠAlice": 3437,
      "Ġregular": 3438,
      "Ġflexible": 3439,
      "gest": 3440,
      "Ġacorn": 3441,
      "Ġshel": 3442,
      "Ġterrible": 3443,
      "Ġfriendship": 3444,
      "ĠKim": 3445,
      "Ġprize": 3446,
      "Ġmodern": 3447,
      "Ġspilled": 3448,
      "Ġengine": 3449,
      "Ġtem": 3450,
      "Ġtor": 3451,
      "Ġjug": 3452,
      "ations": 3453,
      "Ġtooth": 3454,
      "Ġsauce": 3455,
      "Ġending": 3456,
      "Ġbiggest": 3457,
      "Ġload": 3458,
      "Ġdriving": 3459,
      "Ġavo": 3460,
      "Ġaunt": 3461,
      "aghet": 3462,
      "Ġpotato": 3463,
      "aghetti": 3464,
      "Ġbarber": 3465,
      "Ġenvelope": 3466,
      "Ġsink": 3467,
      "Ġtowers": 3468,
      "Ġrub": 3469,
      "Ġumbrella": 3470,
      "Ġsne": 3471,
      "Ġpirate": 3472,
      "Ġdestro": 3473,
      "Ġpeeked": 3474,
      "ict": 3475,
      "Ġhanded": 3476,
      "fa": 3477,
      "Ġpatter": 3478,
      "Ġhandle": 3479,
      "Ġpopular": 3480,
      "time": 3481,
      "Ġloll": 3482,
      "Ġcareless": 3483,
      "Ġwire": 3484,
      "Ġdreaming": 3485,
      "Ġcarrying": 3486,
      "ĠSn": 3487,
      "Ġbeetle": 3488,
      "Ġscreen": 3489,
      "ipop": 3490,
      "Ġthunder": 3491,
      "While": 3492,
      "Ġspaghetti": 3493,
      "Ġchar": 3494,
      "Go": 3495,
      "Ġtied": 3496,
      "Ġgraceful": 3497,
      "Ġwing": 3498,
      "Ġing": 3499,
      "Ġcomb": 3500,
      "Ġprep": 3501,
      "Ġcereal": 3502,
      "Ġstage": 3503,
      "Ġlollipop": 3504,
      "Ġrubbed": 3505,
      "Ġjacket": 3506,
      "Ġtunnel": 3507,
      "Ġstatue": 3508,
      "Ġknock": 3509,
      "Ġmush": 3510,
      "Ġcompassion": 3511,
      "Ġpattern": 3512,
      "Ġgoose": 3513,
      "Ġcomputer": 3514,
      "Ġdesk": 3515,
      "ĠBella": 3516,
      "ĠMar": 3517,
      "Ġreward": 3518,
      "Ġscatter": 3519,
      "Ġslides": 3520,
      "redient": 3521,
      "Ġingredient": 3522,
      "Ġshocked": 3523,
      "Ġer": 3524,
      "Ġcur": 3525,
      "ision": 3526,
      "Ġnote": 3527,
      "Ġdeliver": 3528,
      "Ġscale": 3529,
      "Ġstack": 3530,
      "Ġmel": 3531,
      "robe": 3532,
      "Ġsquare": 3533,
      "Ġmeal": 3534,
      "Ġgrand": 3535,
      "arsh": 3536,
      "Ġbull": 3537,
      "Ġtrap": 3538,
      "Ġcrazy": 3539,
      "Ġliz": 3540,
      "Ġtruth": 3541,
      "Ġbracelet": 3542,
      "Ġcrocodile": 3543,
      "eezed": 3544,
      "Ġpengu": 3545,
      "Ġpow": 3546,
      "Ġtravel": 3547,
      "Ġwitch": 3548,
      "Ġshiver": 3549,
      "Ġmask": 3550,
      "Ġgasped": 3551,
      "Ġimagined": 3552,
      "Ġimpressive": 3553,
      "Ġperform": 3554,
      "Ġearth": 3555,
      "Ġrug": 3556,
      "ĠMike": 3557,
      "Ġtrash": 3558,
      "Ġpersist": 3559,
      "ellig": 3560,
      "Ġcollar": 3561,
      "ĠWhile": 3562,
      "Ġintellig": 3563,
      "Ġearly": 3564,
      "Ġpup": 3565,
      "Ġjumps": 3566,
      "Ow": 3567,
      "Ġthinking": 3568,
      "Ġadvice": 3569,
      "ĠPe": 3570,
      "host": 3571,
      "io": 3572,
      "uddy": 3573,
      "ement": 3574,
      "iches": 3575,
      "Ġwheels": 3576,
      "Ġstranger": 3577,
      "Ġcrane": 3578,
      "Ġspring": 3579,
      "Ġnames": 3580,
      "uper": 3581,
      "Ġenv": 3582,
      "Ġperm": 3583,
      "comfort": 3584,
      "Ġwindows": 3585,
      "Ġenth": 3586,
      "Ġfork": 3587,
      "ibb": 3588,
      "Ġghost": 3589,
      "illie": 3590,
      "Ġspoke": 3591,
      "Ġbent": 3592,
      "ikes": 3593,
      "ĠLook": 3594,
      "Ġbeauty": 3595,
      "Ġcreate": 3596,
      "ophie": 3597,
      "Ġstickers": 3598,
      "Ġlibrary": 3599,
      "Ġenthus": 3600,
      "Ġobject": 3601,
      "Ġcelebrate": 3602,
      "Ġmushroom": 3603,
      "Ġingredients": 3604,
      "ĠDave": 3605,
      "comfortable": 3606,
      "aches": 3607,
      "Ġwaff": 3608,
      "Ġmill": 3609,
      "Ġwarned": 3610,
      "Ġgrowing": 3611,
      "Ġorder": 3612,
      "Ġuncomfortable": 3613,
      "Ġphot": 3614,
      "Ġmailbox": 3615,
      "Ġreading": 3616,
      "Ġdiscover": 3617,
      "If": 3618,
      "Ġbutterflies": 3619,
      "Ġpale": 3620,
      "awn": 3621,
      "Ġhipp": 3622,
      "Ġsorts": 3623,
      "Ġtorn": 3624,
      "Ġcamp": 3625,
      "Ġsparkled": 3626,
      "ĠHere": 3627,
      "Ġharmless": 3628,
      "Ġpigeon": 3629,
      "Ġquestion": 3630,
      "Ġsofa": 3631,
      "ebra": 3632,
      "Ġcomplet": 3633,
      "Ġletters": 3634,
      "Ġparade": 3635,
      "coa": 3636,
      "Ġcompetitive": 3637,
      "Ġflour": 3638,
      "Ġanx": 3639,
      "tter": 3640,
      "Ġsudden": 3641,
      "Ġpenny": 3642,
      "Ġuncle": 3643,
      "Ġpretending": 3644,
      "Ġgor": 3645,
      "Ġdestroy": 3646,
      "Ġsandwiches": 3647,
      "Ġnuts": 3648,
      "Ġahead": 3649,
      "Ġrece": 3650,
      "Ġblueber": 3651,
      "orant": 3652,
      "Ġcounting": 3653,
      "Ġpatch": 3654,
      "loo": 3655,
      "Ġbadly": 3656,
      "ips": 3657,
      "ince": 3658,
      "Ġpony": 3659,
      "Ġshut": 3660,
      "Ġlizard": 3661,
      "Ġanxious": 3662,
      "Ġzebra": 3663,
      "Ġbeep": 3664,
      "Ġcooking": 3665,
      "Ġplaced": 3666,
      "Ġsurf": 3667,
      "Ġpiano": 3668,
      "Ġhumble": 3669,
      "Ġneat": 3670,
      "Ġhook": 3671,
      "ices": 3672,
      "Ġencou": 3673,
      "Ġsadly": 3674,
      "Ġsnuggled": 3675,
      "Ġmay": 3676,
      "Ġcocoa": 3677,
      "Ġuniver": 3678,
      "Ġhung": 3679,
      "Ġignorant": 3680,
      "ric": 3681,
      "Ġtwirled": 3682,
      "Ġintelligent": 3683,
      "Ġstation": 3684,
      "Ġsunflower": 3685,
      "Ġbase": 3686,
      "Ġotter": 3687,
      "stri": 3688,
      "ses": 3689,
      "ĠGrandpa": 3690,
      "Mary": 3691,
      "oe": 3692,
      "Ġpersistent": 3693,
      "Ġdug": 3694,
      "Ġpepper": 3695,
      "Ġtriang": 3696,
      "Ġnail": 3697,
      "ĠMummy": 3698,
      "Yay": 3699,
      "Ġcards": 3700,
      "Ġrefused": 3701,
      "Ġtask": 3702,
      "Ġspeed": 3703,
      "Ġgum": 3704,
      "ief": 3705,
      "Ġrules": 3706,
      "cream": 3707,
      "Ġgloomy": 3708,
      "Ġcupboard": 3709,
      "Ġpants": 3710,
      "gust": 3711,
      "Ġchasing": 3712,
      "arian": 3713,
      "Ġchance": 3714,
      "Ġfearful": 3715,
      "Ġtur": 3716,
      "ud": 3717,
      "Ġcharming": 3718,
      "Ġleash": 3719,
      "Ġstarts": 3720,
      "Ġshaking": 3721,
      "Ġdisgust": 3722,
      "Ġsett": 3723,
      "Ġcreatures": 3724,
      "Ġdeaf": 3725,
      "Ġattract": 3726,
      "ĠGive": 3727,
      "used": 3728,
      "Ġtrick": 3729,
      "Ġcarp": 3730,
      "Ġordinary": 3731,
      "Ġtrack": 3732,
      "ĠBear": 3733,
      "Ġpasta": 3734,
      "cu": 3735,
      "Ġresist": 3736,
      "erable": 3737,
      "ĠWh": 3738,
      "Ġanywhere": 3739,
      "Ġtrump": 3740,
      "ĠFr": 3741,
      "Ġolder": 3742,
      "Ġcartoon": 3743,
      "Ġsuper": 3744,
      "lcano": 3745,
      "Ġcurt": 3746,
      "Ġgifted": 3747,
      "cut": 3748,
      "Ġhippo": 3749,
      "Ġcurtain": 3750,
      "Ġyawn": 3751,
      "Ġled": 3752,
      "Ġmiserable": 3753,
      "ceed": 3754,
      "Ġsquash": 3755,
      "Ġcourage": 3756,
      "Ġcricket": 3757,
      "ĠSm": 3758,
      "Ġbrighter": 3759,
      "Ġgorilla": 3760,
      "Give": 3761,
      "bled": 3762,
      "Ġimpat": 3763,
      "Re": 3764,
      "Ġsend": 3765,
      "Ġpurse": 3766,
      "Ġgir": 3767,
      "Ġalert": 3768,
      "Ġjet": 3769,
      "Ġpracticed": 3770,
      "Ġturkey": 3771,
      "Ġclub": 3772,
      "Ġhurry": 3773,
      "Ġhelmet": 3774,
      "Ġshouts": 3775,
      "Ġvalue": 3776,
      "Ġdecorate": 3777,
      "Ġbandage": 3778,
      "opus": 3779,
      "ctopus": 3780,
      "Ġsoldier": 3781,
      "ĠSh": 3782,
      "ĠPat": 3783,
      "Ġfu": 3784,
      "urb": 3785,
      "Ġcompl": 3786,
      "Ġostri": 3787,
      "Ġscoot": 3788,
      "Ġimpatient": 3789,
      "Ġtire": 3790,
      "Ġcase": 3791,
      "Ġdisturb": 3792,
      "iest": 3793,
      "htub": 3794,
      "Ġallig": 3795,
      "Ġvolcano": 3796,
      "Ġcompassionate": 3797,
      "Ġtrumpet": 3798,
      "Ġbathtub": 3799,
      "Ġshine": 3800,
      "Ġsupport": 3801,
      "Ġoctopus": 3802,
      "Ġbounced": 3803,
      "Ġitself": 3804,
      "aked": 3805,
      "ĠJoey": 3806,
      "Ġspell": 3807,
      "Ġdrawer": 3808,
      "Ġcarpet": 3809,
      "Ġdisgusting": 3810,
      "Ġsalt": 3811,
      "Ġjeep": 3812,
      "ĠToby": 3813,
      "Ġpressed": 3814,
      "ĠAre": 3815,
      "Ġbicy": 3816,
      "Ġmeas": 3817,
      "ĠEventually": 3818,
      "Ġgrabs": 3819,
      "Ġfilthy": 3820,
      "Ġmelon": 3821,
      "noon": 3822,
      "Ġcomet": 3823,
      "Ġafternoon": 3824,
      "Ġbarking": 3825,
      "Ġmug": 3826,
      "Ġrestless": 3827,
      "aff": 3828,
      "Ġshoe": 3829,
      "Ġhunter": 3830,
      "Bye": 3831,
      "ĠLola": 3832,
      "Ġenvious": 3833,
      "Ġbri": 3834,
      "Ġhelpless": 3835,
      "Ġtray": 3836,
      "Ġfirework": 3837,
      "Ġsucceed": 3838,
      "Ġpulls": 3839,
      "icop": 3840,
      "ĠWhere": 3841,
      "icopter": 3842,
      "Ġstretched": 3843,
      "Ġtemp": 3844,
      "Ġten": 3845,
      "ubby": 3846,
      "Ġnowhere": 3847,
      "Ġskip": 3848,
      "Ġadmire": 3849,
      "Ġattractive": 3850,
      "Ġcryst": 3851,
      "Everyone": 3852,
      "Ġlively": 3853,
      "Ġnobody": 3854,
      "Ġmagnet": 3855,
      "Ġhelicopter": 3856,
      "aroo": 3857,
      "Ġshield": 3858,
      "ĠAlex": 3859,
      "Ġexplain": 3860,
      "angaroo": 3861,
      "gging": 3862,
      "Ġhuman": 3863,
      "aurant": 3864,
      "Ġrepe": 3865,
      "Ġneedle": 3866,
      "Ġorganize": 3867,
      "gn": 3868,
      "Ġsomewhere": 3869,
      "Ġrestaurant": 3870,
      "Ġfive": 3871,
      "Ġgiggle": 3872,
      "Ġcush": 3873,
      "Benny": 3874,
      "aby": 3875,
      "Ġcats": 3876,
      "Ġcows": 3877,
      "Ġleop": 3878,
      "Ġvine": 3879,
      "Ġanyway": 3880,
      "ser": 3881,
      "Ġbarrel": 3882,
      "Ġkangaroo": 3883,
      "Ġbet": 3884,
      "Ġvide": 3885,
      "Ġmonkeys": 3886,
      "Ġattic": 3887,
      "Ġsplit": 3888,
      "Ġsticker": 3889,
      "Ġcooked": 3890,
      "Ġdess": 3891,
      "Ġlions": 3892,
      "ĠTweetie": 3893,
      "Ġreco": 3894,
      "Ġwishes": 3895,
      "Ġostrich": 3896,
      "ĠPolly": 3897,
      "ophone": 3898,
      "enry": 3899,
      "Ġthief": 3900,
      "Ġthread": 3901,
      "Ġchubby": 3902,
      "Ġpoem": 3903,
      "Ġants": 3904,
      "Ġsandbox": 3905,
      "Ġfurther": 3906,
      "Ġbackpack": 3907,
      "Ġpun": 3908,
      "Ġseal": 3909,
      "Ġgoal": 3910,
      "Ġdistant": 3911,
      "Ġrespectful": 3912,
      "ebook": 3913,
      "Ġtap": 3914,
      "inking": 3915,
      "Ġscrew": 3916,
      "Ġradio": 3917,
      "Ġnotebook": 3918,
      "Ġvi": 3919,
      "Ġpaws": 3920,
      "ummer": 3921,
      "astic": 3922,
      "ĠMandy": 3923,
      "Ġribb": 3924,
      "stairs": 3925,
      "Ġholes": 3926,
      "Alice": 3927,
      "Ġharsh": 3928,
      "Ġunpack": 3929,
      "Ġfinds": 3930,
      "Ġraven": 3931,
      "par": 3932,
      "Ġmuff": 3933,
      "ĠCl": 3934,
      "Ġsent": 3935,
      "Ġsepar": 3936,
      "Ġpushes": 3937,
      "Ġstirred": 3938,
      "iskers": 3939,
      "Daisy": 3940,
      "Ġmath": 3941,
      "Ġfireman": 3942,
      "Ġmodest": 3943,
      "Ġswitch": 3944,
      "arlie": 3945,
      "Ġalligator": 3946,
      "Ġsteps": 3947,
      "shed": 3948,
      "Ġstared": 3949,
      "Ġelev": 3950,
      "orable": 3951,
      "Ġfrowned": 3952,
      "ĠEverything": 3953,
      "night": 3954,
      "Ġpackage": 3955,
      "Ġsweater": 3956,
      "Ġleopard": 3957,
      "Ġhedge": 3958,
      "Ġrice": 3959,
      "Ġavoc": 3960,
      "Ġpand": 3961,
      "Ġcardboard": 3962,
      "Ġbicycle": 3963,
      "hood": 3964,
      "stic": 3965,
      "Ġwheat": 3966,
      "Ġmicr": 3967,
      "ipping": 3968,
      "Ġsize": 3969,
      "Ġlid": 3970,
      "Ġcube": 3971,
      "Ġsheet": 3972,
      "Ġdrawings": 3973,
      "Ġelevator": 3974,
      "Ġsoar": 3975,
      "Ġfort": 3976,
      "cycle": 3977,
      "Ġbikes": 3978,
      "Ġjokes": 3979,
      "Ġbehave": 3980,
      "Ġcandle": 3981,
      "Ġlightning": 3982,
      "Ġur": 3983,
      "ĠSmith": 3984,
      "Ġadorable": 3985,
      "Ġimpro": 3986,
      "iastic": 3987,
      "Ġbreat": 3988,
      "Ġsilver": 3989,
      "Ġenthusiastic": 3990,
      "Ġmeat": 3991,
      "ci": 3992,
      "Ġhive": 3993,
      "iron": 3994,
      "Ġbears": 3995,
      "ĠBrownie": 3996,
      "Ġsort": 3997,
      "Ġhaircut": 3998,
      "Ġdessert": 3999,
      "elery": 4000,
      "Ġexper": 4001,
      "Ġspeak": 4002,
      "gie": 4003,
      "Ġhappier": 4004,
      "heart": 4005,
      "Ġmicrophone": 4006,
      "come": 4007,
      "ĠBuddy": 4008,
      "Ġsle": 4009,
      "Ġloop": 4010,
      "Ġchain": 4011,
      "irit": 4012,
      "Ġquite": 4013,
      "Ġrepair": 4014,
      "Ġhall": 4015,
      "Ġeither": 4016,
      "aila": 4017,
      "ccol": 4018,
      "Ġpal": 4019,
      "uct": 4020,
      "ccoli": 4021,
      "Ġenerg": 4022,
      "Ġtroubled": 4023,
      "Ġstretch": 4024,
      "Ġrecogn": 4025,
      "ĠBill": 4026,
      "ĠGeorge": 4027,
      "Ġquar": 4028,
      "reci": 4029,
      "Ġmarry": 4030,
      "Ġoy": 4031,
      "ĠLee": 4032,
      "Ġchalk": 4033,
      "ĠRed": 4034,
      "Ġtripped": 4035,
      "Ġprov": 4036,
      "aulif": 4037,
      "Ġswinging": 4038,
      "cast": 4039,
      "Ġfle": 4040,
      "Ġboots": 4041,
      "Ġpole": 4042,
      "Ġappreci": 4043,
      "Ġroared": 4044,
      "Ġlistening": 4045,
      "Ġpaid": 4046,
      "Ġriding": 4047,
      "Ġjellyfish": 4048,
      "Ġgro": 4049,
      "Ġstom": 4050,
      "Ġdishes": 4051,
      "ailable": 4052,
      "Ġgolf": 4053,
      "Ġforgave": 4054,
      "Ġpapers": 4055,
      "said": 4056,
      "Ġpor": 4057,
      "Ġshovel": 4058,
      "Ġcact": 4059,
      "Ġoat": 4060,
      "year": 4061,
      "Ġlip": 4062,
      "Ġchecked": 4063,
      "Ġsandcast": 4064,
      "apa": 4065,
      "Ġrescue": 4066,
      "Ġbin": 4067,
      "Ġclapping": 4068,
      "Ġscold": 4069,
      "Ġrod": 4070,
      "Ġshelter": 4071,
      "Little": 4072,
      "eer": 4073,
      "Ġmama": 4074,
      "Ġinse": 4075,
      "Ġwallet": 4076,
      "cond": 4077,
      "Daddy": 4078,
      "Ġsecond": 4079,
      "Ġbuzz": 4080,
      "Ġavailable": 4081,
      "ĠâĢ": 4082,
      "Ġcelery": 4083,
      "Ġsock": 4084,
      "Ġobser": 4085,
      "fee": 4086,
      "Ġink": 4087,
      "Ġshakes": 4088,
      "Ġpushing": 4089,
      "happy": 4090,
      "Ġtriangle": 4091,
      "Ha": 4092,
      "Ġeraser": 4093,
      "ffee": 4094,
      "Ġmessage": 4095,
      "Ġcaulif": 4096,
      "Ġpeek": 4097,
      "Ġgrapes": 4098,
      "Ġpalace": 4099,
      "Ġalive": 4100,
      "Ġtrains": 4101,
      "Ġfalling": 4102,
      "Ġshopkeeper": 4103,
      "Ġfeelings": 4104,
      "Ġtrop": 4105,
      "Ġcolours": 4106,
      "Ġknot": 4107,
      "Ġbroccoli": 4108,
      "Ġsailor": 4109,
      "Ġpoint": 4110,
      "ĠWhiskers": 4111,
      "ube": 4112,
      "Ġrag": 4113,
      "Ġcountry": 4114,
      "Ġbreaks": 4115,
      "Ġcostume": 4116,
      "Ġcactus": 4117,
      "Ġspirit": 4118,
      "Ġlear": 4119,
      "Ġraft": 4120,
      "Ġsmells": 4121,
      "Ġjudge": 4122,
      "render": 4123,
      "Ġyach": 4124,
      "olin": 4125,
      "Ġtuna": 4126,
      "Ġlearnt": 4127,
      "Ġsummer": 4128,
      "Ġlaser": 4129,
      "Ġonion": 4130,
      "Ġsoftly": 4131,
      "ron": 4132,
      "Ġshrimp": 4133,
      "Ġscooter": 4134,
      "Ġtrophy": 4135,
      "Ġluck": 4136,
      "Ġputting": 4137,
      "Ġclimbing": 4138,
      "Ġended": 4139,
      "Ġpolish": 4140,
      "Ġraining": 4141,
      "ĠSnow": 4142,
      "Ġcrystal": 4143,
      "Ġmen": 4144,
      "Ġmild": 4145,
      "Ġreind": 4146,
      "Ġart": 4147,
      "azz": 4148,
      "Jenny": 4149,
      "play": 4150,
      "bul": 4151,
      "Ġstarting": 4152,
      "ucked": 4153,
      "reeze": 4154,
      "Ġvisited": 4155,
      "Ġzoomed": 4156,
      "Ġrubber": 4157,
      "edy": 4158,
      "ĠGrace": 4159,
      "Ġtreasures": 4160,
      "Ġbasketball": 4161,
      "ooped": 4162,
      "Ġunhappy": 4163,
      "Ġhoping": 4164,
      "Ġsprink": 4165,
      "Grandma": 4166,
      "Ġstrugg": 4167,
      "Ġrolling": 4168,
      "ef": 4169,
      "Ġappl": 4170,
      "ĠOr": 4171,
      "Ġenergy": 4172,
      "ĠWould": 4173,
      "Ġgiven": 4174,
      "Ġcauliflower": 4175,
      "sist": 4176,
      "Ġtube": 4177,
      "Ġol": 4178,
      "Ġyacht": 4179,
      "Ġlaund": 4180,
      "Ġpilot": 4181,
      "Ġpipe": 4182,
      "aled": 4183,
      "Ġped": 4184,
      "Ġlaundry": 4185,
      "Ġunlock": 4186,
      "Ġpenguin": 4187,
      "Ġsaus": 4188,
      "icer": 4189,
      "Ġneighbour": 4190,
      "Ġcooler": 4191,
      "Ġhotel": 4192,
      "ĠJerry": 4193,
      "Ġframe": 4194,
      "Ġhadn": 4195,
      "ĠBunny": 4196,
      "Ġreindeer": 4197,
      "Ġflies": 4198,
      "Ġdive": 4199,
      "Ġdisplay": 4200,
      "Ġtricks": 4201,
      "Ġcups": 4202,
      "Ġbarks": 4203,
      "Ġkay": 4204,
      "Ġquit": 4205,
      "Ġbelt": 4206,
      "Ġshort": 4207,
      "aggie": 4208,
      "ĠPaul": 4209,
      "Ġthanks": 4210,
      "Ġbul": 4211,
      "Ġsweetheart": 4212,
      "Ġbur": 4213,
      "Ġcoffee": 4214,
      "ait": 4215,
      "ecause": 4216,
      "Ġpeach": 4217,
      "Ġdisag": 4218,
      "Ġairport": 4219,
      "Ġincl": 4220,
      "pe": 4221,
      "ĠSandy": 4222,
      "kelet": 4223,
      "sely": 4224,
      "ĠSophie": 4225,
      "ĠBet": 4226,
      "Ġoil": 4227,
      "Ġshade": 4228,
      "Ġevening": 4229,
      "Ġdrops": 4230,
      "ĠAndy": 4231,
      "Ġjournal": 4232,
      "Ġfilm": 4233,
      "Ġsym": 4234,
      "Ġthrows": 4235,
      "Ġlawy": 4236,
      "Ġtax": 4237,
      "Ġcord": 4238,
      "ides": 4239,
      "Ġstuffed": 4240,
      "Ġcushion": 4241,
      "ney": 4242,
      "Ġfolder": 4243,
      "Ġbulb": 4244,
      "Ġlives": 4245,
      "Ġpad": 4246,
      "Ġskill": 4247,
      "Ġiron": 4248,
      "ĠTr": 4249,
      "seum": 4250,
      "Ġmarched": 4251,
      "Ġbananas": 4252,
      "hino": 4253,
      "Ġclosely": 4254,
      "Ġphoto": 4255,
      "zzy": 4256,
      "Ġambul": 4257,
      "Ġvend": 4258,
      "Ġsurrender": 4259,
      "Ġleaned": 4260,
      "nger": 4261,
      "Ġtub": 4262,
      "Ġpanda": 4263,
      "Ġfootball": 4264,
      "Ġfisher": 4265,
      "Ġplanet": 4266,
      "Ġstrawberry": 4267,
      "ense": 4268,
      "Ġinsist": 4269,
      "Ġmuseum": 4270,
      "Ġwool": 4271,
      "Ġpair": 4272,
      "Ġfauc": 4273,
      "Ġcounter": 4274,
      "Ġporch": 4275,
      "ges": 4276,
      "keleton": 4277,
      "Ġlend": 4278,
      "bol": 4279,
      "ito": 4280,
      "Ġdiary": 4281,
      "Ġpainter": 4282,
      "affe": 4283,
      "Ġsymbol": 4284,
      "Ġtheater": 4285,
      "Ġcherries": 4286,
      "Ġambulance": 4287,
      "Ġtaxi": 4288,
      "Ġswung": 4289,
      "Ġax": 4290,
      "Ġrhino": 4291,
      "Ġcomplete": 4292,
      "Ġwaving": 4293,
      "ites": 4294,
      "Ġfrogs": 4295,
      "eath": 4296,
      "Ġheads": 4297,
      "Ġsteak": 4298,
      "Ġfields": 4299,
      "Ġapologized": 4300,
      "Ġfaucet": 4301,
      "izes": 4302,
      "Ġviolin": 4303,
      "Ġlie": 4304,
      "ccer": 4305,
      "quito": 4306,
      "mand": 4307,
      "Ġforgotten": 4308,
      "Ġinsect": 4309,
      "Ġplastic": 4310,
      "Ġreef": 4311,
      "nam": 4312,
      "Ġhut": 4313,
      "Ġmule": 4314,
      "Ġcheek": 4315,
      "Ġmagaz": 4316,
      "ĠRo": 4317,
      "Ġpage": 4318,
      "ckey": 4319,
      "Ġhockey": 4320,
      "Ġpowder": 4321,
      "erop": 4322,
      "Ġsoccer": 4323,
      "Ġimagine": 4324,
      "eropl": 4325,
      "Ġaeropl": 4326,
      "Ġlime": 4327,
      "Ġcable": 4328,
      "Ġimagination": 4329,
      "Ġshouldn": 4330,
      "..": 4331,
      "Ġvet": 4332,
      "Ġmos": 4333,
      "Ġbaking": 4334,
      "ween": 4335,
      "Ġtrail": 4336,
      "Ġwinter": 4337,
      "Ġsunset": 4338,
      "Ġskeleton": 4339,
      "Ġwife": 4340,
      "Ġcreated": 4341,
      "Ġbetween": 4342,
      "angu": 4343,
      "Ġbelongs": 4344,
      "Ġgiraffe": 4345,
      "Ġquarrel": 4346,
      "Ġvendor": 4347,
      "Ġlangu": 4348,
      "Ġpirates": 4349,
      "Ġmosquito": 4350,
      "any": 4351,
      "Ġsoil": 4352,
      "Ġplayer": 4353,
      "ĠPapa": 4354,
      "Ġsir": 4355,
      "Ġchirp": 4356,
      "ected": 4357,
      "Ġgrocer": 4358,
      "stead": 4359,
      "Ġkitty": 4360,
      "Ġaxe": 4361,
      "aces": 4362,
      "ĠâĢĵ": 4363,
      "Ġrever": 4364,
      "iling": 4365,
      "ĠRos": 4366,
      "ctory": 4367,
      "ues": 4368,
      "ories": 4369,
      "Ġpoints": 4370,
      "urch": 4371,
      "Ġwipe": 4372,
      "Ġbreeze": 4373,
      "Your": 4374,
      "Ġmotorcycle": 4375,
      "Ġtemple": 4376,
      "Ġherb": 4377,
      "Ġeagerly": 4378,
      "Ġyogurt": 4379,
      "Ġsneak": 4380,
      "Ġslept": 4381,
      "anic": 4382,
      "Ġfactory": 4383,
      "Ġminute": 4384,
      "ippery": 4385,
      "Ġshouting": 4386,
      "nament": 4387,
      "Ġslippery": 4388,
      "Ġattention": 4389,
      "Ġstud": 4390,
      "Ġmeeting": 4391,
      "Ġkayak": 4392,
      "Ġlawyer": 4393,
      "chair": 4394,
      "Ġblowing": 4395,
      "Ġfisherman": 4396,
      "chanic": 4397,
      "Ġperfectly": 4398,
      "Ġmixer": 4399,
      "Ġcane": 4400,
      "Ġnovel": 4401,
      "Ġseeing": 4402,
      "Ġornament": 4403,
      "Ġpoke": 4404,
      "Ġglowing": 4405,
      "Ġargue": 4406,
      "imi": 4407,
      "Ġmechanic": 4408,
      "Ġpit": 4409,
      "Ġfishing": 4410,
      "Ch": 4411,
      "Ġsprayed": 4412,
      "Ġchickens": 4413,
      "Ġseas": 4414,
      "Ġoffer": 4415,
      "spap": 4416,
      "ĠMillie": 4417,
      "imney": 4418,
      "Ġvest": 4419,
      "Ġmaze": 4420,
      "Ġheaded": 4421,
      "men": 4422,
      "Ġnewspap": 4423,
      "Ġweather": 4424,
      "Ġtwink": 4425,
      "Ġarmchair": 4426,
      "Ġnapkin": 4427,
      "Ġavocado": 4428,
      "Ġrot": 4429,
      "Ġskull": 4430,
      "Ġblankets": 4431,
      "Ġcelebrated": 4432,
      "Ġsung": 4433,
      "Ġchimney": 4434,
      "ison": 4435,
      "place": 4436,
      "Ġglove": 4437,
      "Ġhopes": 4438,
      "Ġitch": 4439,
      "Ġflame": 4440,
      "Ġzipper": 4441,
      "lass": 4442,
      "Ġgreedy": 4443,
      "iture": 4444,
      "urniture": 4445,
      "Ġbaseball": 4446,
      "Ġsquirrels": 4447,
      "Inside": 4448,
      "ĠMaria": 4449,
      "inarian": 4450,
      "ĠWill": 4451,
      "eterinarian": 4452,
      "Ġfurniture": 4453,
      "aud": 4454,
      "Ġgolden": 4455,
      "ĠBun": 4456,
      "Ġmystery": 4457,
      "Ġvideo": 4458,
      "Ġflea": 4459,
      "Ġtoil": 4460,
      "Ġshower": 4461,
      "Ġmoves": 4462,
      "Ġveterinarian": 4463,
      "Ġknob": 4464,
      "ceros": 4465,
      "Ġwelcomed": 4466,
      "Eventually": 4467,
      "Ġdoors": 4468,
      "Ġoyster": 4469,
      "Ġsniffed": 4470,
      "Ġpetals": 4471,
      "Ġwags": 4472,
      "Ġparent": 4473,
      "Ġkingdom": 4474,
      "Ġfollows": 4475,
      "Together": 4476,
      "Ġtoilet": 4477,
      "Ġble": 4478,
      "Ġhar": 4479,
      "erc": 4480,
      "Ġhappens": 4481,
      "Ġcalls": 4482,
      "Ġmemories": 4483,
      "Ġbury": 4484,
      "Ġdiscu": 4485,
      "Ġfreez": 4486,
      "Ġmop": 4487,
      "Ġhanging": 4488,
      "Ġjunk": 4489,
      "Ġtear": 4490,
      "reek": 4491,
      "was": 4492,
      "Ġlawn": 4493,
      "Ġwriting": 4494,
      "Ġrhinoceros": 4495,
      "Ġcreek": 4496,
      "Ġlotion": 4497,
      "Emma": 4498,
      "Ġapplaud": 4499,
      "mm": 4500,
      "ĠGod": 4501,
      "Ġvroom": 4502,
      "Ġsticky": 4503,
      "unately": 4504,
      "elcome": 4505,
      "Ġsurround": 4506,
      "washer": 4507,
      "Ġreve": 4508,
      "Ġsque": 4509,
      "Ġfireplace": 4510,
      "Ġquack": 4511,
      "Ġthrowing": 4512,
      "ler": 4513,
      "Ġminer": 4514,
      "Ġdishwasher": 4515,
      "hero": 4516,
      "Ġexerc": 4517,
      "Ġcoal": 4518,
      "Ġtrave": 4519,
      "Ġsuperhero": 4520,
      "Ġaeroplane": 4521,
      "lasses": 4522,
      "Ġweigh": 4523,
      "Ġprun": 4524,
      "Ġpopped": 4525,
      "Ġmedal": 4526,
      "Ġpassport": 4527,
      "Ġpine": 4528,
      "Ġshoulder": 4529,
      "Ġburned": 4530,
      "Ġsunglasses": 4531,
      "tain": 4532,
      "Ġstaff": 4533,
      "Ġchurch": 4534,
      "Ġignored": 4535,
      "Next": 4536,
      "tress": 4537,
      "Ġshrugged": 4538,
      "low": 4539,
      "Ġdear": 4540,
      "Ġveil": 4541,
      "Ġmattress": 4542,
      "Ġclassroom": 4543,
      "Ġbother": 4544,
      "aws": 4545,
      "Ġig": 4546,
      "ĠUn": 4547,
      "Ġigloo": 4548,
      "rosc": 4549,
      "Ġgrin": 4550,
      "orses": 4551,
      "Ġregret": 4552,
      "iday": 4553,
      "Ġcob": 4554,
      "Ġflapped": 4555,
      "Ġcollected": 4556,
      "Ġagre": 4557,
      "Ġworth": 4558,
      "Ġdancer": 4559,
      "ĠHarry": 4560,
      "ĠRu": 4561,
      "Ġsailing": 4562,
      "Ġcrib": 4563,
      "ĠLilly": 4564,
      "roscope": 4565,
      "right": 4566,
      "Ġtug": 4567,
      "Ġsince": 4568,
      "Ġhorses": 4569,
      "Ġinvest": 4570,
      "Ġbattery": 4571,
      "ring": 4572,
      "asis": 4573,
      "ores": 4574,
      "Ġcrow": 4575,
      "ĠInstead": 4576,
      "Today": 4577,
      "una": 4578,
      "ssible": 4579,
      "Ġmistakes": 4580,
      "Ġmicroscope": 4581,
      "Because": 4582,
      "Ġfought": 4583,
      "Ġswamp": 4584,
      "Ġlanguage": 4585,
      "Ġbouncing": 4586,
      "Ġpresents": 4587,
      "Ġseparate": 4588,
      "Ġoak": 4589,
      "Ġfloat": 4590,
      "Ġskirt": 4591,
      "Ġagree": 4592,
      "Ġinvestig": 4593,
      "ety": 4594,
      "Ġquietly": 4595,
      "Ġstreng": 4596,
      "Ġpastry": 4597,
      "rod": 4598,
      "web": 4599,
      "inked": 4600,
      "Ġoasis": 4601,
      "Is": 4602,
      "case": 4603,
      "Ġinf": 4604,
      "Ġeaten": 4605,
      "Ġdressed": 4606,
      "Wait": 4607,
      "rs": 4608,
      "Ġcared": 4609,
      "Ġintrod": 4610,
      "Ġstable": 4611,
      "Ġmakeup": 4612,
      "Ġbeef": 4613,
      "Ġcandles": 4614,
      "Ġstrength": 4615,
      "ĠCharlie": 4616,
      "vision": 4617,
      "Sammy": 4618,
      "Ġmagazine": 4619,
      "Ġhol": 4620,
      "Ġblackboard": 4621,
      "Ġalarm": 4622,
      "Ġcaring": 4623,
      "Ġprevent": 4624,
      "Ġnewspaper": 4625,
      "Ġholiday": 4626,
      "Ġapart": 4627,
      "Ġcrawling": 4628,
      "Ġsizes": 4629,
      "ĠBaby": 4630,
      "ĠNext": 4631,
      "Ġcobweb": 4632,
      "te": 4633,
      "medi": 4634,
      "Thanks": 4635,
      "Ġcell": 4636,
      "Ġstraight": 4637,
      "ĠAnnie": 4638,
      "Ġmarried": 4639,
      "ĠRosie": 4640,
      "mediately": 4641,
      "ggy": 4642,
      "Ġcomplain": 4643,
      "Ġscolded": 4644,
      "Ann": 4645,
      "ĠTed": 4646,
      "Ġchoice": 4647,
      "Ġcoats": 4648,
      "Ġrooms": 4649,
      "Ġsnap": 4650,
      "Ġsqueezed": 4651,
      "Ġtrusted": 4652,
      "ĠSee": 4653,
      "Ġinvestigate": 4654,
      "ĠTony": 4655,
      "Ġfog": 4656,
      "anges": 4657,
      "Ġpist": 4658,
      "Ġpur": 4659,
      "Ġaccepted": 4660,
      "omes": 4661,
      "Ġgym": 4662,
      "Ġthumb": 4663,
      "Ġtelevision": 4664,
      "ĠHelp": 4665,
      "Ġweep": 4666,
      "Ġberry": 4667,
      "Ġpistol": 4668,
      "Ġpra": 4669,
      "Ġradish": 4670,
      "chie": 4671,
      "Ġkisses": 4672,
      "Ġsteam": 4673,
      "Qu": 4674,
      "uckily": 4675,
      "ction": 4676,
      "'ve": 4677,
      "Ġsqueeze": 4678,
      "Ġattach": 4679,
      "Ġshrink": 4680,
      "Ġwhisper": 4681,
      "ab": 4682,
      "Ġreaches": 4683,
      "Ġnews": 4684,
      "Ġticket": 4685,
      "Ġyield": 4686,
      "Ġrake": 4687,
      "Ġpuddles": 4688,
      "Ġsplashing": 4689,
      "Ġappro": 4690,
      "Ġperfu": 4691,
      "Ġceiling": 4692,
      "Ġrelaxed": 4693,
      "Ġmusician": 4694,
      "Ġamazement": 4695,
      "Ġentered": 4696,
      "Did": 4697,
      "Ġsigh": 4698,
      "Ġletting": 4699,
      "Ġunif": 4700,
      "Ġjewelry": 4701,
      "Ġblood": 4702,
      "Ġblinked": 4703,
      "Ġlicks": 4704,
      "Ġwandered": 4705,
      "Ġteleph": 4706,
      "Ġbirdc": 4707,
      "Ġcastles": 4708,
      "Ġwigg": 4709,
      "sters": 4710,
      "Ġdelay": 4711,
      "ups": 4712,
      "Ġperfume": 4713,
      "ives": 4714,
      "Ġchairs": 4715,
      "Ġharb": 4716,
      "Ġuniform": 4717,
      "Ġbirdcage": 4718,
      "mend": 4719,
      "Ġstro": 4720,
      "Ġeasily": 4721,
      "ising": 4722,
      "ĠHenry": 4723,
      "Ġyucky": 4724,
      "Ġopera": 4725,
      "Ġdemand": 4726,
      "ĠJess": 4727,
      "Ġhelper": 4728,
      "Ġsuff": 4729,
      "Ġfiref": 4730,
      "Ġtelephone": 4731,
      "Ġyoga": 4732,
      "house": 4733,
      "ĊĠ": 4734,
      "Ġhurting": 4735,
      "ĠWho": 4736,
      "Ġserve": 4737,
      "omeday": 4738,
      "ommend": 4739,
      "Ġblueberries": 4740,
      "hic": 4741,
      "Ġrise": 4742,
      "Ġraz": 4743,
      "Ġbookcase": 4744,
      "Ġgrowled": 4745,
      "chor": 4746,
      "Ġrecommend": 4747,
      "Ġpinch": 4748,
      "Ġfreezer": 4749,
      "Ġrequ": 4750,
      "Ġspear": 4751,
      "Ġclaws": 4752,
      "Ġkeeping": 4753,
      "Ġvehic": 4754,
      "sit": 4755,
      "atie": 4756,
      "ĠMiss": 4757,
      "Ġcliff": 4758,
      "ĠKate": 4759,
      "Ġsandcastle": 4760,
      "Ġgrill": 4761,
      "Ġchess": 4762,
      "Ġcrash": 4763,
      "Ġbathe": 4764,
      "achel": 4765,
      "Ġwaffle": 4766,
      "Ġsub": 4767,
      "Ġpuzzles": 4768,
      "she": 4769,
      "Ġmatches": 4770,
      "Ġplates": 4771,
      "Ġdisappear": 4772,
      "cakes": 4773,
      "Ġtucked": 4774,
      "Ġcrossed": 4775,
      "Ġmustache": 4776,
      "'.": 4777,
      "Ġtong": 4778,
      "Ġfile": 4779,
      "Ġward": 4780,
      "Ġsurprises": 4781,
      "Ġplanes": 4782,
      "Ġhearts": 4783,
      "ĠMimi": 4784,
      "Ġrail": 4785,
      "Ġconf": 4786,
      "Ġribbon": 4787,
      "Ġharbor": 4788,
      "ival": 4789,
      "Ġimprove": 4790,
      "Ġdried": 4791,
      "Ġtrade": 4792,
      "Ġwardrobe": 4793,
      "Ġsi": 4794,
      "ived": 4795,
      "Ġtut": 4796,
      "Ġmint": 4797,
      "ĠDanny": 4798,
      "Ġwine": 4799,
      "alley": 4800,
      "Ġbelow": 4801,
      "Ġrequest": 4802,
      "Ġcabinet": 4803,
      "ĠSnowy": 4804,
      "Ġbill": 4805,
      "ionary": 4806,
      "Ġanchor": 4807,
      "Ġvac": 4808,
      "Mandy": 4809,
      "Ġsomeday": 4810,
      "raged": 4811,
      "Ġwarmth": 4812,
      "Ġtoes": 4813,
      "Ġcaptain": 4814,
      "ictionary": 4815,
      "Ġrazor": 4816,
      "Ġrefre": 4817,
      "Ġapron": 4818,
      "Ġbleed": 4819,
      "Ġpoked": 4820,
      "Ġincre": 4821,
      "Ġdictionary": 4822,
      "Jen": 4823,
      "anny": 4824,
      "amber": 4825,
      "Ġvalley": 4826,
      "fortunately": 4827,
      "Ġscattered": 4828,
      "lier": 4829,
      "Ġwaste": 4830,
      "Ġpear": 4831,
      "Ġfuel": 4832,
      "Ġboot": 4833,
      "Ġspade": 4834,
      "Ġkneel": 4835,
      "Ġskills": 4836,
      "Ġmass": 4837,
      "ucture": 4838,
      "Ġsupply": 4839,
      "Ġknown": 4840,
      "Ġstructure": 4841,
      "Ġsafety": 4842,
      "ĠTrue": 4843,
      "ah": 4844,
      "ĠSu": 4845,
      "Ġblouse": 4846,
      "Ġlaught": 4847,
      "eve": 4848,
      "Ġdifferen": 4849,
      "Ġspots": 4850,
      "Ġspending": 4851,
      "Ġlemonade": 4852,
      "Ġmuffin": 4853,
      "Ġlumber": 4854,
      "Ġfollowing": 4855,
      "Ġdresses": 4856,
      "Ġexperience": 4857,
      "Ġinstr": 4858,
      "Ġcuddled": 4859,
      "Ġisn": 4860,
      "Ġmoments": 4861,
      "Ġbalan": 4862,
      "Ġlaughter": 4863,
      "Will": 4864,
      "Ġaut": 4865,
      "Ġsaving": 4866,
      "lend": 4867,
      "Ġcub": 4868,
      "Ġfallen": 4869,
      "Ġideas": 4870,
      "Ġsnapped": 4871,
      "Ġunderstanding": 4872,
      "Yuck": 4873,
      "Ġmyself": 4874,
      "ĠAb": 4875,
      "Ġfastest": 4876,
      "Ġprop": 4877,
      "Ġstrawberries": 4878,
      "Ġairpl": 4879,
      "ampoo": 4880,
      "Ġcalend": 4881,
      "oral": 4882,
      "Ġworms": 4883,
      "Ġtornado": 4884,
      "With": 4885,
      "Ġfest": 4886,
      "Ġraise": 4887,
      "Lisa": 4888,
      "Ġrow": 4889,
      "Ġmissile": 4890,
      "Ġjewels": 4891,
      "Ġcalendar": 4892,
      "Ġsneeze": 4893,
      "Ġremove": 4894,
      "Ġflutter": 4895,
      "Ġbeans": 4896,
      "Ġlugg": 4897,
      "icing": 4898,
      "Ġburied": 4899,
      "Ġtaller": 4900,
      "Ġyawned": 4901,
      "Ġluggage": 4902,
      "aped": 4903,
      "Ġweap": 4904,
      "ĠFo": 4905,
      "Ġimmediately": 4906,
      "riger": 4907,
      "Ġbravely": 4908,
      "Ġsparkling": 4909,
      "Ġringing": 4910,
      "Ġenter": 4911,
      "Ġrefriger": 4912,
      "Ġbegged": 4913,
      "Ġreverse": 4914,
      "Ġrefrigerator": 4915,
      "Ġshampoo": 4916,
      "Ġrabbits": 4917,
      "Ġearlier": 4918,
      "Ġbumped": 4919,
      "Welcome": 4920,
      "Ġroot": 4921,
      "ĠRe": 4922,
      "Ġbookshe": 4923,
      "Ġhits": 4924,
      "Ġdestroyed": 4925,
      "Ġlic": 4926,
      "Ġignore": 4927,
      "Ġinfant": 4928,
      "Ġport": 4929,
      "Ġhardly": 4930,
      "Ġsettled": 4931,
      "ero": 4932,
      "Ġdire": 4933,
      "Ġappreciate": 4934,
      "vet": 4935,
      "Ġhomes": 4936,
      "Ġwashing": 4937,
      "Ġgear": 4938,
      "Ġbeamed": 4939,
      "rm": 4940,
      "Ġpages": 4941,
      "Ġrhy": 4942,
      "Ġsocks": 4943,
      "htray": 4944,
      "Ġashtray": 4945,
      "ĠEach": 4946,
      "Ġdestination": 4947,
      "ĠHave": 4948,
      "Ġtore": 4949,
      "asp": 4950,
      "Ġchores": 4951,
      "Ġchamber": 4952,
      "Ġclimbs": 4953,
      "Ġprepare": 4954,
      "Ġhanger": 4955,
      "anna": 4956,
      "Ġsigns": 4957,
      "Ġbreathe": 4958,
      "ĠJul": 4959,
      "Ġcherry": 4960,
      "ĠClara": 4961,
      "Ġremain": 4962,
      "Ġtherm": 4963,
      "Ġpalm": 4964,
      "Ġtutor": 4965,
      "ĠIts": 4966,
      "Ġreplace": 4967,
      "Ġsparkle": 4968,
      "Ġinvite": 4969,
      "ĠBuzz": 4970,
      "ari": 4971,
      "ission": 4972,
      "Ġplays": 4973,
      "Ġdecorations": 4974,
      "Ġvanished": 4975,
      "Ġuniverse": 4976,
      "Ġtide": 4977,
      "reat": 4978,
      "Ġsolved": 4979,
      "Ġpermission": 4980,
      "Ġpraised": 4981,
      "Ġpride": 4982,
      "inky": 4983,
      "ĠPeople": 4984,
      "Ġvacation": 4985,
      "Ġtongue": 4986,
      "Ġbookshelf": 4987,
      "Ġpoison": 4988,
      "bbie": 4989,
      "Ġhills": 4990,
      "Ġadmir": 4991,
      "Ġdeeper": 4992,
      "Ġscooped": 4993,
      "Ġsits": 4994,
      "Ġscore": 4995,
      "Ġsparkles": 4996,
      "Ġexamine": 4997,
      "Ġstomach": 4998,
      "Ġthermomet": 4999,
      "nies": 5000,
      "Ġfestival": 5001,
      "Ġteaching": 5002,
      "Ġinsisted": 5003,
      "Peter": 5004,
      "omob": 5005,
      "Ġfloated": 5006,
      "Ġcrunch": 5007,
      "Ġquiz": 5008,
      "Ġscratch": 5009,
      "Ġalright": 5010,
      "bbles": 5011,
      "Ġautomob": 5012,
      "osed": 5013,
      "Ġsimp": 5014,
      "sing": 5015,
      "xture": 5016,
      "ĠGood": 5017,
      "Ġmailman": 5018,
      "Ġreceived": 5019,
      "Ġdifference": 5020,
      "ops": 5021,
      "Ġbelieved": 5022,
      "Ġchirping": 5023,
      "Ġthermometer": 5024,
      "Ġdaisy": 5025,
      "Ġpatiently": 5026,
      "Ġbang": 5027,
      "Ġdigg": 5028,
      "ĠJames": 5029,
      "Ġoranges": 5030,
      "Ġfloating": 5031,
      "Ġpanic": 5032,
      "Ġstruggling": 5033,
      "ents": 5034,
      "Ġachie": 5035,
      "Ġpulling": 5036,
      "Ġdigging": 5037,
      "Ġpunish": 5038,
      "Ġhers": 5039,
      "Ġdrain": 5040,
      "Ġlicense": 5041,
      "Mark": 5042,
      "Ġmodel": 5043,
      "Ġranch": 5044,
      "ĠFreddy": 5045,
      "thm": 5046,
      "Ġprovide": 5047,
      "Ġdare": 5048,
      "Ġsty": 5049,
      "Ġupstairs": 5050,
      "Ġrepeat": 5051,
      "Ok": 5052,
      "Ġjail": 5053,
      "izard": 5054,
      "Ġgifts": 5055,
      "ĠBefore": 5056,
      "Ġencouraged": 5057,
      "Ġmeasured": 5058,
      "Ġbuzzing": 5059,
      "Ġrestore": 5060,
      "igail": 5061,
      "antly": 5062,
      "Ġshooting": 5063,
      "ĠSpike": 5064,
      "!'": 5065,
      "Ġglo": 5066,
      "Ġcollection": 5067,
      "Ġneighborhood": 5068,
      "Ġinvit": 5069,
      "iers": 5070,
      "Ġbrain": 5071,
      "Ġguy": 5072,
      "Ġbathrobe": 5073,
      "Ġrhythm": 5074,
      "atch": 5075,
      "Ġbites": 5076,
      "Ġnone": 5077,
      "Ġequ": 5078,
      "Ġrespons": 5079,
      "bey": 5080,
      "osity": 5081,
      "sity": 5082,
      "ĠMay": 5083,
      "Ġinclud": 5084,
      "All": 5085,
      "Ġshot": 5086,
      "Ġsew": 5087,
      "Ġgrape": 5088,
      "ĠOllie": 5089,
      "Ġcollecting": 5090,
      "Ġlabel": 5091,
      "Ġsausage": 5092,
      "Ġworse": 5093,
      "Ġpatterns": 5094,
      "Ġmention": 5095,
      "Ġspaces": 5096,
      "Ġapproached": 5097,
      "Ġsubway": 5098,
      "rise": 5099,
      "Ġdiscuss": 5100,
      "Mmm": 5101,
      "Not": 5102,
      "Ġmall": 5103,
      "allen": 5104,
      "Ġelephants": 5105,
      "Ġweeks": 5106,
      "Ġwhip": 5107,
      "Ġtease": 5108,
      "Ġsprinkles": 5109,
      "Ġmassage": 5110,
      "ĠMaggie": 5111,
      "Ġjazz": 5112,
      "ging": 5113,
      "xy": 5114,
      "ĠV": 5115,
      "Ġsore": 5116,
      "Ġmelted": 5117,
      "These": 5118,
      "!\",": 5119,
      "Ġchallen": 5120,
      "Ġsetting": 5121,
      "Ġsupposed": 5122,
      "act": 5123,
      "Ġsip": 5124,
      "ĠIs": 5125,
      "Ġshed": 5126,
      "Ġbuckle": 5127,
      "Ġsunrise": 5128,
      "Ġunite": 5129,
      "Ġbillboard": 5130,
      "Ġgirls": 5131,
      "Ġtwisted": 5132,
      "Ġbricks": 5133,
      "ium": 5134,
      "Ġspit": 5135,
      "Ġleak": 5136,
      "Ġflav": 5137,
      "Ġoper": 5138,
      "Ġexercise": 5139,
      "\",": 5140,
      "Ġitem": 5141,
      "Ġairplane": 5142,
      "Ġmeowed": 5143,
      "Ġvehicle": 5144,
      "Fl": 5145,
      "Ġwizard": 5146,
      "allow": 5147,
      "ĠRachel": 5148,
      "Ġparts": 5149,
      "Ġwatches": 5150,
      "Ġdiscovery": 5151,
      "Ġjogging": 5152,
      "Ġsoldiers": 5153,
      "Jake": 5154,
      "fied": 5155,
      "Ġfut": 5156,
      "Ġhesit": 5157,
      "ĠCo": 5158,
      "Ġbak": 5159,
      "ĠKing": 5160,
      "Ġpoppy": 5161,
      "Ġfuture": 5162,
      "Ġpillows": 5163,
      "ĠBetsy": 5164,
      "Ġhate": 5165,
      "Ġglowed": 5166,
      "ĠPoppy": 5167,
      "Ġautomobile": 5168,
      "Sh": 5169,
      "Ġgrey": 5170,
      "ude": 5171,
      "Ġuniversity": 5172,
      "Ġmarbles": 5173,
      "Ġgust": 5174,
      "Ġsport": 5175,
      "Emily": 5176,
      "aspoon": 5177,
      "ĠEveryday": 5178,
      "Ġmister": 5179,
      "Ġteaspoon": 5180,
      "Ġpigs": 5181,
      "Ġwhistled": 5182,
      "Ġgrocery": 5183,
      "Ġrush": 5184,
      "Ġbrings": 5185,
      "ĠNut": 5186,
      "Ġfixing": 5187,
      "gy": 5188,
      "Ġgain": 5189,
      "Ġawe": 5190,
      "Ġevent": 5191,
      "ĠLater": 5192,
      "Ġactually": 5193,
      "Ġheat": 5194,
      "Ġmanage": 5195,
      "Ġurge": 5196,
      "Ġlets": 5197,
      "Ġwarning": 5198,
      "Ġremained": 5199,
      "Ġscratched": 5200,
      "Ġsuffer": 5201,
      "Ġbeg": 5202,
      "Ġslice": 5203,
      "Ġthrilled": 5204,
      "Ġburning": 5205,
      "cles": 5206,
      "asc": 5207,
      "ases": 5208,
      "Ġseats": 5209,
      "Ġgrinned": 5210,
      "bers": 5211,
      "Ġgrowl": 5212,
      "Ġpaused": 5213,
      "Ġsurrounded": 5214,
      "Ouch": 5215,
      "umble": 5216,
      "Ġproblems": 5217,
      "Ġsings": 5218,
      "Ġstad": 5219,
      "Ġlick": 5220,
      "Ġstadium": 5221,
      "Would": 5222,
      "Ġzipped": 5223,
      "uing": 5224,
      "Ġtoe": 5225,
      "irped": 5226,
      "ĠPenny": 5227,
      "ishing": 5228,
      "Ġspill": 5229,
      "Ġnation": 5230,
      "Ġchirped": 5231,
      "ĠZoe": 5232,
      "ĠSharing": 5233,
      "Ġweapon": 5234,
      "Ġdrinking": 5235,
      "Ġdrinks": 5236,
      "Ġtwigs": 5237,
      "eed": 5238,
      "ĠChirp": 5239,
      "Ġordered": 5240,
      "Ġcakes": 5241,
      "Ġrust": 5242,
      "emember": 5243,
      "Ġwhistling": 5244,
      "Ġscur": 5245,
      "Ġpossible": 5246,
      "Ġracing": 5247,
      "ĠRuby": 5248,
      "Ġeff": 5249,
      "ĠSomeone": 5250,
      "Ġbeat": 5251,
      "Ġbrus": 5252,
      "Ġstrang": 5253,
      "Ġtracks": 5254,
      "Before": 5255,
      "Ġhurric": 5256,
      "Ġobserve": 5257,
      "Ġlect": 5258,
      "Ġpaints": 5259,
      "Ġreceive": 5260,
      "Ġtour": 5261,
      "Ġduring": 5262,
      "Ġsneezed": 5263,
      "Ġmarching": 5264,
      "Ġprayed": 5265,
      "do": 5266,
      "Ġlaid": 5267,
      "Ġwatered": 5268,
      "Ġwaffles": 5269,
      "Ġdecision": 5270,
      "Ġworks": 5271,
      "Ġhated": 5272,
      "Ġspaceship": 5273,
      "cious": 5274,
      "Ġours": 5275,
      "Ġsliding": 5276,
      "Ġmemory": 5277,
      "Ġx": 5278,
      "Ġwherever": 5279,
      "Ġcontain": 5280,
      "Ġpotatoes": 5281,
      "Ġscreams": 5282,
      "Ġcrunchy": 5283,
      "Ġlecture": 5284,
      "ĠFro": 5285,
      "ĠJoy": 5286,
      "Ġraised": 5287,
      "Ġwaits": 5288,
      "Ready": 5289,
      "Ġpetted": 5290,
      "Ġspoons": 5291,
      "Ġcartoons": 5292,
      "Ġinvitation": 5293,
      "Ġhurricane": 5294,
      "ĠTina": 5295,
      "Ġearthqu": 5296,
      "Ġcrashed": 5297,
      "Ġolive": 5298,
      "Ġsatis": 5299,
      "Ġlily": 5300,
      "Ġwarn": 5301,
      "Ex": 5302,
      "fy": 5303,
      "walk": 5304,
      "Ġfasc": 5305,
      "ities": 5306,
      "ĠLiz": 5307,
      "Ġflood": 5308,
      "Ġskipping": 5309,
      "Ġpeanuts": 5310,
      "Ġstrangers": 5311,
      "Ġtomatoes": 5312,
      "Ġfed": 5313,
      "Johnny": 5314,
      "Ġswims": 5315,
      "Ġcurled": 5316,
      "Ġoperation": 5317,
      "oved": 5318,
      "Ġmitten": 5319,
      "Ġfireworks": 5320,
      "Ġsunlight": 5321,
      "Ġpupp": 5322,
      "Ġrecognized": 5323,
      "the": 5324,
      "Ġmineral": 5325,
      "cc": 5326,
      "Ġremem": 5327,
      "Ġstrip": 5328,
      "Ġmeasuring": 5329,
      "Le": 5330,
      "Ġvel": 5331,
      "Ġcircus": 5332,
      "Ġchewed": 5333,
      "unday": 5334,
      "Ġdisagreed": 5335,
      "Ġremembers": 5336,
      "Ġvelvet": 5337,
      "Ġsafari": 5338,
      "Ġplanted": 5339,
      "Ġbeds": 5340,
      "Yum": 5341,
      "Ġkindly": 5342,
      "ipment": 5343,
      "Ġtalent": 5344,
      "Ġcontinue": 5345,
      "Ġlands": 5346,
      "Ġmouths": 5347,
      "ĠSunday": 5348,
      "Ġbuildings": 5349,
      "Ġsidewalk": 5350,
      "Ġeasier": 5351,
      "Ġprice": 5352,
      "Ġadmiring": 5353,
      "Ġequipment": 5354,
      "mother": 5355,
      "Ġcomfy": 5356,
      "Ġwond": 5357,
      "Ġmonsters": 5358,
      "Ġbrick": 5359,
      "Ġbes": 5360,
      "ĠSad": 5361,
      "Ġsecrets": 5362,
      "bbled": 5363,
      "Ġattached": 5364,
      "Ġfascin": 5365,
      "Ġmeow": 5366,
      "Ġglitter": 5367,
      "Ġappear": 5368,
      "Ġmountains": 5369,
      "Ġblueberry": 5370,
      "hest": 5371,
      "Ġhappiest": 5372,
      "Ġtremb": 5373,
      "Ġflap": 5374,
      "Ġfet": 5375,
      "Ġescaped": 5376,
      "ddy": 5377,
      "Ġfolded": 5378,
      "Ġrefreshed": 5379,
      "Ġbones": 5380,
      "Really": 5381,
      "Ġclearing": 5382,
      "Ġeffort": 5383,
      "amie": 5384,
      "seek": 5385,
      "ĠCat": 5386,
      "Ġselling": 5387,
      "Ġwre": 5388,
      "Ġcompany": 5389,
      "Ġbringing": 5390,
      "Ġapologize": 5391,
      "son": 5392,
      "Ġgaz": 5393,
      "ĠMe": 5394,
      "ĠLuna": 5395,
      "Ġprepared": 5396,
      "Ġgloves": 5397,
      "Ġrevealed": 5398,
      "ĠNutty": 5399,
      "Ġearthquake": 5400,
      "Ġofficer": 5401,
      "Ġlips": 5402,
      "Ġbeside": 5403,
      "Ġwid": 5404,
      "Ġobey": 5405,
      "Ġnavy": 5406,
      "Ġonwards": 5407,
      "Ġweren": 5408,
      "Ġturning": 5409,
      "Ġtrapped": 5410,
      "Ġbleeding": 5411,
      "Ġcopper": 5412,
      "Ġanytime": 5413,
      "Ġsimple": 5414,
      "Ġweight": 5415,
      "Ġdoggy": 5416,
      "Ġguessed": 5417,
      "Ġmenu": 5418,
      "Ro": 5419,
      "Ġsix": 5420,
      "Ġmuddy": 5421,
      "Ġleather": 5422,
      "ĠSteve": 5423,
      "Ġstripes": 5424,
      "enty": 5425,
      "Ġprecious": 5426,
      "Ġreminder": 5427,
      "Moral": 5428,
      "Ġladyb": 5429,
      "Ġpets": 5430,
      "Ġwanting": 5431,
      "ĠKatie": 5432,
      "Ġdinosaurs": 5433,
      "Ġwaist": 5434,
      "ĠNot": 5435,
      "Ġslip": 5436,
      "loe": 5437,
      "zag": 5438,
      "Ġgotten": 5439,
      "Ġsucceeded": 5440,
      "Ġhist": 5441,
      "Ġallow": 5442,
      "Ġbye": 5443,
      "Ġcatching": 5444,
      "Ġsteel": 5445,
      "Ġhistory": 5446,
      "Somet": 5447,
      "aded": 5448,
      "Ġkeeper": 5449,
      "Ġsettle": 5450,
      "Ġfirefight": 5451,
      "Ġpeered": 5452,
      "Ġbrand": 5453,
      "Ġcuddle": 5454,
      "ĠMat": 5455,
      "Ġfash": 5456,
      "Ġoats": 5457,
      "joyed": 5458,
      "Ġserved": 5459,
      "Ġeveryday": 5460,
      "Ġoverjoyed": 5461,
      "Ġvillag": 5462,
      "Ġscoop": 5463,
      "Ġfreeze": 5464,
      "Luckily": 5465,
      "idges": 5466,
      "Ġwisdom": 5467,
      "Susie": 5468,
      "Ġpies": 5469,
      "Ġrested": 5470,
      "avid": 5471,
      "Ġgained": 5472,
      "Ġpermit": 5473,
      "Ġstyle": 5474,
      "Ġrained": 5475,
      "Ġperched": 5476,
      "Ġsoared": 5477,
      "Ġeats": 5478,
      "Ġpedal": 5479,
      "Ġcutting": 5480,
      "ĠAbigail": 5481,
      "Ġwonders": 5482,
      "Ġimage": 5483,
      "Ġtastes": 5484,
      "Ġshopping": 5485,
      "ĠChirpy": 5486,
      "amb": 5487,
      "Ġprinter": 5488,
      "Ġbowed": 5489,
      "Ġcomforted": 5490,
      "Ġeagle": 5491,
      "igzag": 5492,
      "Ġwooden": 5493,
      "Ġshadows": 5494,
      "Ġpupil": 5495,
      "ĠMilly": 5496,
      "Ġbridges": 5497,
      "Ġrang": 5498,
      "Ġsnowball": 5499,
      "Ġwhatever": 5500,
      "Ġvoices": 5501,
      "Ġanswers": 5502,
      "Ġfamil": 5503,
      "Ġacorns": 5504,
      "mble": 5505,
      "Ġstealing": 5506,
      "Ġvisiting": 5507,
      "Ġfashion": 5508,
      "First": 5509,
      "Ġdecides": 5510,
      "anta": 5511,
      "Ġdrag": 5512,
      "Ġhurried": 5513,
      "Ġcostumes": 5514,
      "Ġstitch": 5515,
      "Ġbrushed": 5516,
      "Ġagreement": 5517,
      "Ġdownstairs": 5518,
      "Ġwrites": 5519,
      "Ġnails": 5520,
      "oming": 5521,
      "Ġbreaking": 5522,
      "Ġemerg": 5523,
      "ien": 5524,
      "nie": 5525,
      "Ġexact": 5526,
      "Ġcrept": 5527,
      "Ġstruggled": 5528,
      "Ġcreation": 5529,
      "Ġresponsible": 5530,
      "Ġvillagers": 5531,
      "Ġripped": 5532,
      "ĠChr": 5533,
      "Ġtwirling": 5534,
      "Ġsadness": 5535,
      "Ġcuriosity": 5536,
      "Ġbeneath": 5537,
      "ĠSomething": 5538,
      "Ġdisturbed": 5539,
      "ding": 5540,
      "icorn": 5541,
      "Ġunderground": 5542,
      "Ġunicorn": 5543,
      "Ġemergen": 5544,
      "Ġpitch": 5545,
      "Ġaccidents": 5546,
      "Tweet": 5547,
      "neath": 5548,
      "Ġtip": 5549,
      "Ġbun": 5550,
      "Ġweighed": 5551,
      "Ġtremble": 5552,
      "izing": 5553,
      "Ġmice": 5554,
      "Ġpancakes": 5555,
      "gen": 5556,
      "Ġchef": 5557,
      "iggy": 5558,
      "ĠRemy": 5559,
      "Ġfiremen": 5560,
      "Ġcomple": 5561,
      "Ġpracticing": 5562,
      "ays": 5563,
      "len": 5564,
      "isten": 5565,
      "ĠThese": 5566,
      "Ġneighbors": 5567,
      "terday": 5568,
      "Ġexamined": 5569,
      "ĠJe": 5570,
      "Ġvict": 5571,
      "Ġdoctors": 5572,
      "Ġgrandmother": 5573,
      "annah": 5574,
      "xygen": 5575,
      "Ġbare": 5576,
      "Ġdied": 5577,
      "Ġdecorated": 5578,
      "Ġlemons": 5579,
      "Ġargued": 5580,
      "ĠQu": 5581,
      "ira": 5582,
      "Ġknelt": 5583,
      "Ġspiders": 5584,
      "Ġclaps": 5585,
      "Ġbegin": 5586,
      "Ġowned": 5587,
      "Ġnetwork": 5588,
      "Ġrides": 5589,
      "ĠFloppy": 5590,
      "Ġpadd": 5591,
      "Ġsting": 5592,
      "Ġsoak": 5593,
      ".'": 5594,
      "Ġrecognize": 5595,
      "Ġladybug": 5596,
      "Ġrealize": 5597,
      "Happy": 5598,
      "rr": 5599,
      "ĠSunny": 5600,
      "ĠLike": 5601,
      "Ġpeel": 5602,
      "Ġyelling": 5603,
      "Ġbeha": 5604,
      "Ġactiv": 5605,
      "ĠSpark": 5606,
      "ishes": 5607,
      "Ġbend": 5608,
      "Ġarea": 5609,
      "Goodbye": 5610,
      "Ġinch": 5611,
      "Ġkeeps": 5612,
      "Ġzero": 5613,
      "ales": 5614,
      "Ġrele": 5615,
      "Ġpinched": 5616,
      "Ġsnail": 5617,
      "Ġsitu": 5618,
      "Ġmission": 5619,
      "Ġkeys": 5620,
      "Ġencourage": 5621,
      "Ġprune": 5622,
      "Sometimes": 5623,
      "ashed": 5624,
      "Or": 5625,
      "va": 5626,
      "ffic": 5627,
      "Ġwinning": 5628,
      "ley": 5629,
      "Ġexit": 5630,
      "rol": 5631,
      "Ġwondering": 5632,
      "Ġruin": 5633,
      "ĠKe": 5634,
      "Ġexactly": 5635,
      "mare": 5636,
      "Ġwagging": 5637,
      "Ġjogged": 5638,
      "Ġtraffic": 5639,
      "Ġaccom": 5640,
      "Fluffy": 5641,
      "Ġloose": 5642,
      "Ġzooming": 5643,
      "Ġstirring": 5644,
      "Ġolives": 5645,
      "Ġstudied": 5646,
      "Ġlines": 5647,
      "Ġzigzag": 5648,
      "Ġpastel": 5649,
      "Ġtune": 5650,
      "Rex": 5651,
      "rin": 5652,
      "Ġcape": 5653,
      "ĠHoppy": 5654,
      "riage": 5655,
      "laire": 5656,
      "Ġsneaked": 5657,
      "Ġtugged": 5658,
      "Ġrelease": 5659,
      "Ġtickets": 5660,
      "Ġsatisfied": 5661,
      "Ġwreck": 5662,
      "ib": 5663,
      "Ġoxygen": 5664,
      "Ġeight": 5665,
      "ĠEl": 5666,
      "Ġsiren": 5667,
      "Ġbunnies": 5668,
      "looking": 5669,
      "gers": 5670,
      "Ġunderneath": 5671,
      "Ġunlocked": 5672,
      "uke": 5673,
      "Ġago": 5674,
      "ĠRa": 5675,
      "Ġnightmare": 5676,
      "Ġbuckets": 5677,
      "Ġchallenge": 5678,
      "Ye": 5679,
      "Ġoutdo": 5680,
      "Ġslapped": 5681,
      "Ġlandsc": 5682,
      "Ġhonk": 5683,
      "Ġinstruct": 5684,
      "ĠFirst": 5685,
      "Ġfascinated": 5686,
      "Ġcaut": 5687,
      "Ġnicer": 5688,
      "ulu": 5689,
      "Ġaccompl": 5690,
      "Un": 5691,
      "Ġweb": 5692,
      "ĠStop": 5693,
      "Ġshivering": 5694,
      "ĠBir": 5695,
      "Ġloving": 5696,
      "Ġpockets": 5697,
      "Ġstretching": 5698,
      "Dave": 5699,
      "ĠTiny": 5700,
      "ĠHowever": 5701,
      "Ġpiles": 5702,
      "Ġpunished": 5703,
      "zen": 5704,
      "Ġdent": 5705,
      "Ġmittens": 5706,
      "ĠLucky": 5707,
      "Ġplanned": 5708,
      "Ġprotected": 5709,
      "Ġsolut": 5710,
      "Ġneighbourhood": 5711,
      "Ġcompetition": 5712,
      "Ġdraws": 5713,
      "Ġgathering": 5714,
      "Ġproperly": 5715,
      "ĠBubbles": 5716,
      "ĠUncle": 5717,
      "Ġitems": 5718,
      "ĠTw": 5719,
      "usan": 5720,
      "Ġcontrol": 5721,
      "Ġsupplies": 5722,
      "Ġemergency": 5723,
      "Ġlied": 5724,
      "Ġshoulders": 5725,
      "indy": 5726,
      "ĠOl": 5727,
      "Ġparked": 5728,
      "Ġtravell": 5729,
      "Ġsights": 5730,
      "Ġsoaring": 5731,
      "Joey": 5732,
      "Ġperfor": 5733,
      "Ġmarkers": 5734,
      "Ġlandscape": 5735,
      "ik": 5736,
      "kins": 5737,
      "Mar": 5738,
      "Ġpearl": 5739,
      "Ġruler": 5740,
      "Ġdeser": 5741,
      "Andy": 5742,
      "Ġfetch": 5743,
      "Ġfrosting": 5744,
      "Ġbouncy": 5745,
      "ĠSanta": 5746,
      "Ġann": 5747,
      "Ġstruck": 5748,
      "Ġtouching": 5749,
      "Ġinstructions": 5750,
      "ayla": 5751,
      "ica": 5752,
      "Ġburrow": 5753,
      "ĠJan": 5754,
      "Ġpeaches": 5755,
      "Ġprinted": 5756,
      "Ġloaded": 5757,
      "inda": 5758,
      "thank": 5759,
      "Ġsisters": 5760,
      "omas": 5761,
      "Ġfoods": 5762,
      "Ġmuscles": 5763,
      "ĠAnne": 5764,
      "Ġintroduc": 5765,
      "Ġbarely": 5766,
      "Ġmarks": 5767,
      "Teddy": 5768,
      "agull": 5769,
      "bbing": 5770,
      "Ġopin": 5771,
      "Ġstole": 5772,
      "Ġcrumb": 5773,
      "Ġdrift": 5774,
      "Ġmixing": 5775,
      "Ġincrease": 5776,
      "Ġvictory": 5777,
      "Bella": 5778,
      "Ġtonight": 5779,
      "Ġdam": 5780,
      "Ġbudge": 5781,
      "Ġfrozen": 5782,
      "Ġrainbows": 5783,
      "Ġapplauded": 5784,
      "Ġmast": 5785,
      "Ġsilence": 5786,
      "bric": 5787,
      "ury": 5788,
      "Ġsides": 5789,
      "Ġeast": 5790,
      "Ġfabric": 5791,
      "Ġstrings": 5792,
      "Ġrocked": 5793,
      "Ġourselves": 5794,
      "shing": 5795,
      "ux": 5796,
      "ĠBig": 5797,
      "ĠDid": 5798,
      "Ġteasing": 5799,
      "Ġrubbing": 5800,
      "Ġbank": 5801,
      "Ġvent": 5802,
      "Ġgiggling": 5803,
      "Ġsoaked": 5804,
      "Ġseagull": 5805,
      "Ġguns": 5806,
      "Ġoutdoors": 5807,
      "ĠAn": 5808,
      "Ġpretti": 5809,
      "aky": 5810,
      "Ġplanets": 5811,
      "Ġprettiest": 5812,
      "Ġbottles": 5813,
      "Ġbrushes": 5814,
      "Ġcompleted": 5815,
      "Ġreleased": 5816,
      "edding": 5817,
      "Ġbunch": 5818,
      "Ġchases": 5819,
      "Ġsweeties": 5820,
      "Ġpouring": 5821,
      "uesday": 5822,
      "Ġscurried": 5823,
      "Ġdragons": 5824,
      "Ġvowed": 5825,
      "Ġpears": 5826,
      "Ġprints": 5827,
      "Ġseason": 5828,
      "oed": 5829,
      "Ġwest": 5830,
      "Ġstair": 5831,
      "Ġmovies": 5832,
      "Ġbloomed": 5833,
      "Ġsurface": 5834,
      "Ġpurred": 5835,
      "Ġtim": 5836,
      "Ġpoking": 5837,
      "Ġdemanded": 5838,
      "Mr": 5839,
      "nes": 5840,
      "oh": 5841,
      "Ġbaked": 5842,
      "ĠFrank": 5843,
      "bies": 5844,
      "Ġtickle": 5845,
      "Ġintroduce": 5846,
      "George": 5847,
      "Ġ1": 5848,
      "Ġmater": 5849,
      "Ġsteep": 5850,
      "Ġdiscovering": 5851,
      "Ġcamping": 5852,
      "Ġmateri": 5853,
      "Ġbroom": 5854,
      "Cl": 5855,
      "ĠBeth": 5856,
      "Ġdragged": 5857,
      "Ġwinner": 5858,
      "Ġmuffins": 5859,
      "uctantly": 5860,
      "Ġsighs": 5861,
      "ĠSuzy": 5862,
      "ednes": 5863,
      "imy": 5864,
      "Ġcatches": 5865,
      "Ġbabies": 5866,
      "ednesday": 5867,
      "Ġmachines": 5868,
      "Ġurged": 5869,
      "Ġmentioned": 5870,
      "ĠOnce": 5871,
      "ĠTuesday": 5872,
      "Mike": 5873,
      "zie": 5874,
      "Ġlux": 5875,
      "ĠJosh": 5876,
      "Ġherbs": 5877,
      "Ġda": 5878,
      "icked": 5879,
      "Ġbeard": 5880,
      "Ġroaring": 5881,
      "Ġsinger": 5882,
      "Ġscreaming": 5883,
      "Ġstamps": 5884,
      "Ġconfident": 5885,
      "Bobby": 5886,
      "ora": 5887,
      "ĠWednesday": 5888,
      "Ġcones": 5889,
      "Ġproject": 5890,
      "Ġinterest": 5891,
      "Ġguys": 5892,
      "ena": 5893,
      "ĠCarl": 5894,
      "Ġdrives": 5895,
      "Ġhorns": 5896,
      "Lola": 5897,
      "dam": 5898,
      "jam": 5899,
      "Ġtexture": 5900,
      "Ġpretends": 5901,
      "avi": 5902,
      "Ġpowers": 5903,
      "though": 5904,
      "Ġpassing": 5905,
      "Ah": 5906,
      "ĠJones": 5907,
      "ĠBetty": 5908,
      "Ġwound": 5909,
      "ern": 5910,
      "ĠPip": 5911,
      "Ġcontest": 5912,
      "ĠChloe": 5913,
      "Ġribbons": 5914,
      "Ġcrowd": 5915,
      "Ġgoals": 5916,
      "ason": 5917,
      "Ġranger": 5918,
      "Ġchips": 5919,
      "Ġstudying": 5920,
      "Ġbalancing": 5921,
      "ĠAm": 5922,
      "Ġmatched": 5923,
      "Ġexpect": 5924,
      "Ġresult": 5925,
      "Ġsausages": 5926,
      "Ġdisagree": 5927,
      "Ġcal": 5928,
      "Ġpout": 5929,
      "ilo": 5930,
      "ĠHa": 5931,
      "Ġsorted": 5932,
      "Ġmarriage": 5933,
      "Ġhighest": 5934,
      "Ġpebbles": 5935,
      "Ġcurly": 5936,
      "Ġforgi": 5937,
      "Ġkicking": 5938,
      "Ġsuitc": 5939,
      "Ġgazed": 5940,
      "Ella": 5941,
      "Henry": 5942,
      "Ġshock": 5943,
      "Ġcuts": 5944,
      "Ġreluctantly": 5945,
      "Ġpatience": 5946,
      "ĠCoco": 5947,
      "Maggie": 5948,
      "Paul": 5949,
      "Ġshelves": 5950,
      "Ġshivered": 5951,
      "ĠRabbit": 5952,
      "Ġge": 5953,
      "Ġhugging": 5954,
      "Ġchat": 5955,
      "Ġstrike": 5956,
      "Ġrepeated": 5957,
      "uzz": 5958,
      "ĠDavid": 5959,
      "fit": 5960,
      "uly": 5961,
      "Ġyouth": 5962,
      "Ġwaiter": 5963,
      "Ġcurtains": 5964,
      "ĠJulie": 5965,
      "Ġfault": 5966,
      "Ġacted": 5967,
      "Pete": 5968,
      "Ġsway": 5969,
      "Ġwedding": 5970,
      "Ġgrant": 5971,
      "Ġflags": 5972,
      "Ġplenty": 5973,
      "die": 5974,
      "Ġti": 5975,
      "exp": 5976,
      "Ġfigured": 5977,
      "ĠHop": 5978,
      "Ġgoodnight": 5979,
      "Ġmatching": 5980,
      "Ġthreat": 5981,
      "ĠJamie": 5982,
      "Ġpaintings": 5983,
      "Ġtwinkling": 5984,
      "Ġfart": 5985,
      "ĠBye": 5986,
      "Ġoutfit": 5987,
      "Grandpa": 5988,
      "Ġincluded": 5989,
      "Ġcautious": 5990,
      "Kitty": 5991,
      "Remember": 5992,
      "Ġslimy": 5993,
      "Ġpoliceman": 5994,
      "Ġchewing": 5995,
      "eezing": 5996,
      "Ġdusty": 5997,
      "Ġregretted": 5998,
      "esome": 5999,
      "Ġtheirs": 6000,
      "Ġsweets": 6001,
      "Ġentire": 6002,
      "Ġsolution": 6003,
      "Ġintroduced": 6004,
      "Ġtowels": 6005,
      "irts": 6006,
      "Ġsorting": 6007,
      "ĠAlways": 6008,
      "Ġblooming": 6009,
      "Ġpenguins": 6010,
      "Ġsituation": 6011,
      "Ġthro": 6012,
      "usted": 6013,
      "ledge": 6014,
      "Ġguest": 6015,
      "Grace": 6016,
      "Ġrecorded": 6017,
      "lowly": 6018,
      "expected": 6019,
      "ĠTilly": 6020,
      "Ġstare": 6021,
      "Ġinclude": 6022,
      "Ġthroat": 6023,
      "ivery": 6024,
      "Ġflat": 6025,
      "Ġrocking": 6026,
      "ults": 6027,
      "Ġachieve": 6028,
      "hins": 6029,
      "you": 6030,
      "Ġunexpected": 6031,
      "Afterwards": 6032,
      "Uh": 6033,
      "bl": 6034,
      "mas": 6035,
      "Ġheel": 6036,
      "Ġknowledge": 6037,
      "ĠCar": 6038,
      "bert": 6039,
      "Ġprunes": 6040,
      "Ġdentist": 6041,
      "igi": 6042,
      "Ġblink": 6043,
      "Ġsticking": 6044,
      "Ġcheering": 6045,
      "izzie": 6046,
      "Ġlibrarian": 6047,
      "Ġrescued": 6048,
      "Ġagrees": 6049,
      "ĠSusan": 6050,
      "Ġstaring": 6051,
      "Ġtruly": 6052,
      "Ġsnugg": 6053,
      "ĠRob": 6054,
      "Ġspraying": 6055,
      "cuse": 6056,
      "Ġroots": 6057,
      "ĠLulu": 6058,
      "Ġawesome": 6059,
      "Leo": 6060,
      "Ġluxury": 6061,
      "jamas": 6062,
      "vin": 6063,
      "Ġcompletely": 6064,
      "ĠChrist": 6065,
      "Yeah": 6066,
      "iar": 6067,
      "Ġast": 6068,
      "itely": 6069,
      "Ġhomework": 6070,
      "essie": 6071,
      "Ġcaused": 6072,
      "ĠSure": 6073,
      "Ġfoc": 6074,
      "Ġmotion": 6075,
      "Sophie": 6076,
      "Ġlap": 6077,
      "Ġlearns": 6078,
      "Ġuses": 6079,
      "Ġgrowling": 6080,
      "Ġarguing": 6081,
      "Ġboom": 6082,
      "Ġwritten": 6083,
      "Ġimportance": 6084,
      "Ġcreating": 6085,
      "Ġzookeeper": 6086,
      "...": 6087,
      "Mrs": 6088,
      "hell": 6089,
      "Ġbravery": 6090,
      "Ġwandering": 6091,
      "Excuse": 6092,
      "Ġtrembling": 6093,
      "hello": 6094,
      "Ġdared": 6095,
      "Ġshined": 6096,
      "Ġexha": 6097,
      "Ġscales": 6098,
      "Ġrolls": 6099,
      "Ġroads": 6100,
      "ĠZoom": 6101,
      "ĠChristmas": 6102,
      "go": 6103,
      "Ġslap": 6104,
      "Ġdelivery": 6105,
      "Ġworkers": 6106,
      "Ġcrackers": 6107,
      "njoy": 6108,
      "vers": 6109,
      "oys": 6110,
      "Ġarrive": 6111,
      "Ġdirection": 6112,
      "immer": 6113,
      "Ġreaching": 6114,
      "Ġsafer": 6115,
      "Ġreplac": 6116,
      "Mittens": 6117,
      "Ġbead": 6118,
      "Ġkneeled": 6119,
      "Ġbelly": 6120,
      "asm": 6121,
      "Ġsnakes": 6122,
      "Ġwires": 6123,
      "Ġscra": 6124,
      "Ġcomm": 6125,
      "ĠGr": 6126,
      "Ġstruggle": 6127,
      "opes": 6128,
      "boat": 6129,
      "Ġexpected": 6130,
      "ĠSadly": 6131,
      "Ġexhausted": 6132,
      "une": 6133,
      "icky": 6134,
      "Ġhealed": 6135,
      "Ġorganizing": 6136,
      "Ġventured": 6137,
      "aa": 6138,
      "ĠYes": 6139,
      "Ġwink": 6140,
      "ĠJu": 6141,
      "Ġmane": 6142,
      "lowers": 6143,
      "Ġlamb": 6144,
      "ences": 6145,
      "Ġbecoming": 6146,
      "Ġgreet": 6147,
      "Ġcrumbs": 6148,
      "lee": 6149,
      "Ġflames": 6150,
      "Ġusual": 6151,
      "ĠLeave": 6152,
      "Ġcrabs": 6153,
      "Ġdolphins": 6154,
      "ĠJohnson": 6155,
      "Ġpajamas": 6156,
      "oline": 6157,
      "Ġinviting": 6158,
      "Ġworries": 6159,
      "Ġowners": 6160,
      "angled": 6161,
      "Ġleader": 6162,
      "Ġpencils": 6163,
      "irm": 6164,
      "Ġunited": 6165,
      "Ġstorekeeper": 6166,
      "iles": 6167,
      "Ġpacking": 6168,
      "Ġrelief": 6169,
      "Ġbaker": 6170,
      "Ġheav": 6171,
      "Ġboo": 6172,
      "Ġfirm": 6173,
      "Ġcash": 6174,
      "ĠLou": 6175,
      "Ġpolishing": 6176,
      "Ġpots": 6177,
      "Ġtraveled": 6178,
      "Ġtimer": 6179,
      "ĠMart": 6180,
      "Ġfairies": 6181,
      "Ġsuitcase": 6182,
      "James": 6183,
      "Ġcloses": 6184,
      "Ġcough": 6185,
      "ĠPipp": 6186,
      "Ġworker": 6187,
      "Ġpartic": 6188,
      "Ġrockets": 6189,
      "Ġpatted": 6190,
      "Ġtrips": 6191,
      "Ġvanish": 6192,
      "Ġradishes": 6193,
      "However": 6194,
      "Ġpeeking": 6195,
      "Ġdirect": 6196,
      "Ġvalued": 6197,
      "Ġprayer": 6198,
      "Ġseems": 6199,
      "Ġquacked": 6200,
      "ĠJessie": 6201,
      "int": 6202,
      "Ġfara": 6203,
      "Ġstartled": 6204,
      "Ġmisses": 6205,
      "Ġdesp": 6206,
      "Ġfaraway": 6207,
      "Ġcent": 6208,
      "iding": 6209,
      "Ġcountryside": 6210,
      "Millie": 6211,
      "Ġmelting": 6212,
      "Ġphotos": 6213,
      "Ġitchy": 6214,
      "Ġflavor": 6215,
      "Ġusually": 6216,
      "Ġgroceries": 6217,
      "Ġreveal": 6218,
      "ĠUnfortunately": 6219,
      "ĠAbby": 6220,
      "Ġcans": 6221,
      "Ġrestored": 6222,
      "Ġwiggled": 6223,
      "Ġinterested": 6224,
      "ords": 6225,
      "Ġstern": 6226,
      "Ġremoved": 6227,
      "Ġfuzzy": 6228,
      "Ġbalanced": 6229,
      "Ġseesaw": 6230,
      "Ġresting": 6231,
      "Ġscru": 6232,
      "Ġknights": 6233,
      "Annie": 6234,
      "Bad": 6235,
      "Ġrisk": 6236,
      "Ġstem": 6237,
      "asked": 6238,
      "Ġchuck": 6239,
      "Ġopening": 6240,
      "Ġteaches": 6241,
      "ĠOut": 6242,
      "Fine": 6243,
      "Ġwrist": 6244,
      "ĠThomas": 6245,
      "Ġcracked": 6246,
      "Ġwinked": 6247,
      "ĠBeing": 6248,
      "Ġopinion": 6249,
      "Fred": 6250,
      "Ġcous": 6251,
      "ids": 6252,
      "Ġleap": 6253,
      "Ġeverybody": 6254,
      "ĠClaire": 6255,
      "ĠJenna": 6256,
      "Ġdesert": 6257,
      "Ġobserved": 6258,
      "Ġsneaky": 6259,
      "ĠJeff": 6260,
      "Ġhissed": 6261,
      "Ġrubs": 6262,
      "Ġtwinkle": 6263,
      "Ġcause": 6264,
      "Ġcott": 6265,
      "ĠFor": 6266,
      "Ġsled": 6267,
      "Ġunf": 6268,
      "Ġparticular": 6269,
      "Alex": 6270,
      "Ġlined": 6271,
      "Ġden": 6272,
      "Ġseven": 6273,
      "Ġroses": 6274,
      "Ġprincesses": 6275,
      "Ġpastels": 6276,
      "Ġpoems": 6277,
      "Ġsigned": 6278,
      "Ġtickled": 6279,
      "Sp": 6280,
      "Ġfaced": 6281,
      "Ġtractor": 6282,
      "Ġmagnets": 6283,
      "Ġactivities": 6284,
      "Run": 6285,
      "ĠLinda": 6286,
      "Ġwasted": 6287,
      "Ġswooped": 6288,
      "brush": 6289,
      "Charlie": 6290,
      "Ġseashell": 6291,
      "ĠFollow": 6292,
      "Ġsnowballs": 6293,
      "Fr": 6294,
      "dies": 6295,
      "rance": 6296,
      "Ġrings": 6297,
      "ĠBy": 6298,
      "Ġreply": 6299,
      "ophia": 6300,
      "Ġsilent": 6301,
      "ĠMatt": 6302,
      "ĠBoth": 6303,
      "umm": 6304,
      "Ġstaying": 6305,
      "Ġsingle": 6306,
      "Ġadding": 6307,
      "Ġcubes": 6308,
      "Ġbeads": 6309,
      "Rose": 6310,
      "aze": 6311,
      "ĠPandy": 6312,
      "Ġcoloured": 6313,
      "Ġsandcastles": 6314,
      "Ġfirefighters": 6315,
      "Ġreplaced": 6316,
      "Ġhi": 6317,
      "Ġkites": 6318,
      "ĠLuke": 6319,
      "Ġswirl": 6320,
      "Ġstolen": 6321,
      "acob": 6322,
      "Ġtricked": 6323,
      "Ġmarker": 6324,
      "Ġprovided": 6325,
      "ĠSorry": 6326,
      "Ġhowever": 6327,
      "Ġremote": 6328,
      "ĠFox": 6329,
      "Ġfarther": 6330,
      "Ġfreed": 6331,
      "isies": 6332,
      "Ġnaps": 6333,
      "Ġlollipops": 6334,
      "Ġdaisies": 6335,
      "Ġlung": 6336,
      "Ġdipped": 6337,
      "Ġwears": 6338,
      "ĠPut": 6339,
      "Ġbowls": 6340,
      "Ġpaddled": 6341,
      "Ġcashier": 6342,
      "Ġspike": 6343,
      "ĠJon": 6344,
      "Ġcolored": 6345,
      "Ġpastries": 6346,
      "ĠQuack": 6347,
      "hee": 6348,
      "Ġnect": 6349,
      "ĠEarth": 6350,
      "ĠEnjoy": 6351,
      "Ġbadge": 6352,
      "ĠDoggy": 6353,
      "Ġnectar": 6354,
      "Ġsobbed": 6355,
      "ĠLizzy": 6356,
      "Ġcelebration": 6357,
      "ĠKeep": 6358,
      "Bl": 6359,
      "Ġlogs": 6360,
      "ĠJazz": 6361,
      "coat": 6362,
      "ĠY": 6363,
      "Ġaff": 6364,
      "Ġslam": 6365,
      "Ġdarkness": 6366,
      "Ġprotecting": 6367,
      "Ġminerals": 6368,
      "ana": 6369,
      "Ġliqu": 6370,
      "Ġtallest": 6371,
      "Ġmarked": 6372,
      "Ġawake": 6373,
      "ĠBuzzy": 6374,
      "Ġcopy": 6375,
      "Ġsquealed": 6376,
      "Ġstroll": 6377,
      "Danny": 6378,
      "Ġty": 6379,
      "Ġbumpy": 6380,
      "Ġsnat": 6381,
      "Ġforehead": 6382,
      "Ġsmiley": 6383,
      "Ġfilling": 6384,
      "Ġsplashes": 6385,
      "Ġrobb": 6386,
      "ĠGigi": 6387,
      "ĠOw": 6388,
      "Ġwipes": 6389,
      "Ġhelmets": 6390,
      "Ġmasks": 6391,
      "abel": 6392,
      "Ġtalented": 6393,
      "ĠHappy": 6394,
      "Ġyounger": 6395,
      "bbly": 6396,
      "Ġtwin": 6397,
      "Ġgems": 6398,
      "Ġcautiously": 6399,
      "tle": 6400,
      "Ġgaze": 6401,
      "aty": 6402,
      "Ġyourselves": 6403,
      "Ġstays": 6404,
      "Ġglasses": 6405,
      "yond": 6406,
      "Ġwow": 6407,
      "Ġbeyond": 6408,
      "ĠLuckily": 6409,
      "Ġexplorers": 6410,
      "Ġraincoat": 6411,
      "Ġreads": 6412,
      "Ġpolished": 6413,
      "Ġblows": 6414,
      "Ġcovers": 6415,
      "âĢĶ": 6416,
      "Ġdirections": 6417,
      "Some": 6418,
      "Ġcust": 6419,
      "ĠSlowly": 6420,
      "ĠHannah": 6421,
      "sty": 6422,
      "ĠFriend": 6423,
      "Ġhealth": 6424,
      "Ġtipt": 6425,
      "boo": 6426,
      "ĠWatch": 6427,
      "Ġlistens": 6428,
      "Ġattack": 6429,
      "Ġactions": 6430,
      "Harry": 6431,
      "ĠWater": 6432,
      "Ġsailboat": 6433,
      "Ġmiles": 6434,
      "Ġentrance": 6435,
      "Ġfluttered": 6436,
      "Ġaccomplish": 6437,
      "Sandy": 6438,
      "Ġbehavi": 6439,
      "Ġmushrooms": 6440,
      "Ġpedals": 6441,
      "Ġfamilies": 6442,
      "Ġchuckled": 6443,
      "?'": 6444,
      "Ġdots": 6445,
      "ĠMel": 6446,
      "Ġyesterday": 6447,
      "Ġsecure": 6448,
      "Ġclowns": 6449,
      "Ġrefle": 6450,
      "Ġtricky": 6451,
      "fl": 6452,
      "Ġsomebody": 6453,
      "Ġknees": 6454,
      "Ġspeaking": 6455,
      "cited": 6456,
      "cers": 6457,
      "Ġbars": 6458,
      "Ġjoking": 6459,
      "Ġbuying": 6460,
      "Ġseeker": 6461,
      "affes": 6462,
      "Ġinsects": 6463,
      "Ġcustom": 6464,
      "Sad": 6465,
      "Ġopp": 6466,
      "Ġripe": 6467,
      "ppers": 6468,
      "ĠAunt": 6469,
      "Ġconn": 6470,
      "Ġhider": 6471,
      "iki": 6472,
      "ĠMad": 6473,
      "ĠGet": 6474,
      "Ġfroze": 6475,
      "Ġbumps": 6476,
      "Ġknocks": 6477,
      "Ġcheeks": 6478,
      "ners": 6479,
      "Ġparties": 6480,
      "Ġgiraffes": 6481,
      "Ġbeginning": 6482,
      "Ġmes": 6483,
      "ĠTess": 6484,
      "ĠMon": 6485,
      "itches": 6486,
      "Ġliquid": 6487,
      "Ġmesmer": 6488,
      "Ġthorn": 6489,
      "?\",": 6490,
      "Ġscaring": 6491,
      "ĠMomo": 6492,
      "Ġscarves": 6493,
      "Ġpleasure": 6494,
      "Ġdetermination": 6495,
      "Ġcandies": 6496,
      "ĠSuzie": 6497,
      "Unfortunately": 6498,
      "Ġmi": 6499,
      "Ġbacked": 6500,
      "Ġhandful": 6501,
      "Ġfolding": 6502,
      "Ġdrums": 6503,
      "Ġvideos": 6504,
      "May": 6505,
      "Ġleading": 6506,
      "Ġrecording": 6507,
      "Ġpaddle": 6508,
      "Days": 6509,
      "Ellie": 6510,
      "ouch": 6511,
      "ĠMany": 6512,
      "Ġdeal": 6513,
      "ĠDolly": 6514,
      "Ġmixture": 6515,
      "Ġpause": 6516,
      "Ġpiggy": 6517,
      "aura": 6518,
      "Ġarrows": 6519,
      "ĠNothing": 6520,
      "Ġtangled": 6521,
      "Ġglee": 6522,
      "ĠChe": 6523,
      "Those": 6524,
      "ĠKayla": 6525,
      "Ġchoices": 6526,
      "Ġinstrum": 6527,
      "band": 6528,
      "ĠBo": 6529,
      "alph": 6530,
      "ĠMilo": 6531,
      "Ġlighter": 6532,
      "Ġtasks": 6533,
      "Ġweeping": 6534,
      "Ġsense": 6535,
      "Ġlower": 6536,
      "ĠSqu": 6537,
      "ĠAdam": 6538,
      "Ġyells": 6539,
      "Ġimproved": 6540,
      "Ġrecommended": 6541,
      "Ġcalmed": 6542,
      "Ġpouted": 6543,
      "igers": 6544,
      "urry": 6545,
      "Ġclick": 6546,
      "ĠFinn": 6547,
      "eke": 6548,
      "ths": 6549,
      "Ġcupcakes": 6550,
      "Ġsalty": 6551,
      "Ġrusty": 6552,
      "Ab": 6553,
      "Ġinsp": 6554,
      "ĠĊĠ": 6555,
      "Ġfever": 6556,
      "Toby": 6557,
      "Ġpaying": 6558,
      "Ġsnatched": 6559,
      "arter": 6560,
      "arling": 6561,
      "Ġdef": 6562,
      "Ġsteer": 6563,
      "Ġbakery": 6564,
      "vest": 6565,
      "iled": 6566,
      "Ġrumble": 6567,
      "Ġbedtime": 6568,
      "Ġruining": 6569,
      "Ġsnowmen": 6570,
      "Ġdiving": 6571,
      "Ġcelebrating": 6572,
      "Ġhesitated": 6573,
      "Ġwidened": 6574,
      "lay": 6575,
      "rig": 6576,
      "indr": 6577,
      "ĠCindy": 6578,
      "Ġraindr": 6579,
      "Ġafterwards": 6580,
      "Ġkicks": 6581,
      "Ġwins": 6582,
      "rious": 6583,
      "ĠMo": 6584,
      "Ġsmarter": 6585,
      "Ġjackets": 6586,
      "Ġbehaved": 6587,
      "Kate": 6588,
      "Ru": 6589,
      "no": 6590,
      "Ġflapping": 6591,
      "aker": 6592,
      "Ġsnuck": 6593,
      "Ġstroked": 6594,
      "Ġlun": 6595,
      "ĠMira": 6596,
      "Ġsquares": 6597,
      "sequ": 6598,
      "Ġdances": 6599,
      "Ġobjects": 6600,
      "Ġshirts": 6601,
      "ĠLizzie": 6602,
      "Ġcowb": 6603,
      "ossible": 6604,
      "Ġimpossible": 6605,
      "Ġconsequ": 6606,
      "Ġunpacked": 6607,
      "ĠSparky": 6608,
      "Ġperforman": 6609,
      "Ġannoy": 6610,
      "Ġtigers": 6611,
      "ans": 6612,
      "ĠBird": 6613,
      "ishy": 6614,
      "Ġstomped": 6615,
      "Polly": 6616,
      "bell": 6617,
      "cope": 6618,
      "Ġcreamy": 6619,
      "Ġacting": 6620,
      "Ġdelivered": 6621,
      "Ġhallway": 6622,
      "ĠRover": 6623,
      "Ġachieved": 6624,
      "Ġaren": 6625,
      "Ġchoo": 6626,
      "Ġtramp": 6627,
      "Ġrule": 6628,
      "ronaut": 6629,
      "Ġartist": 6630,
      "rincess": 6631,
      "Ġdeserve": 6632,
      "Ġmaterials": 6633,
      "Ġastronaut": 6634,
      "atur": 6635,
      "igning": 6636,
      "Ġnoon": 6637,
      "Ġnoses": 6638,
      "Ġindeed": 6639,
      "Ġchefs": 6640,
      "itched": 6641,
      "Ġrip": 6642,
      "Ġpans": 6643,
      "Ġtemper": 6644,
      "Ġornaments": 6645,
      "ĠJulia": 6646,
      "ccoon": 6647,
      "Ġraindrops": 6648,
      "Bun": 6649,
      "tuce": 6650,
      "aren": 6651,
      "Ġraccoon": 6652,
      "Ġlettuce": 6653,
      "ĠJessica": 6654,
      "Ġtodd": 6655,
      "Ġneedles": 6656,
      "ĠPinky": 6657,
      "Ġpointy": 6658,
      "Ġwraps": 6659,
      "Ġscratches": 6660,
      "Ġbasement": 6661,
      "Ġcomplained": 6662,
      "Ġcomplaining": 6663,
      "Ġsibl": 6664,
      "Shh": 6665,
      "Ġsiblings": 6666,
      "ility": 6667,
      "llen": 6668,
      "Ġlosing": 6669,
      "ĠLarry": 6670,
      "ivity": 6671,
      "Ġsale": 6672,
      "oni": 6673,
      "ĠMa": 6674,
      "Ġdarker": 6675,
      "Ġtempt": 6676,
      "Ġdrifted": 6677,
      "Ġscrubbed": 6678,
      "Ġtrampoline": 6679,
      "Pat": 6680,
      "cl": 6681,
      "Ġrefu": 6682,
      "Ġmeals": 6683,
      "ĠEmmy": 6684,
      "Bobo": 6685,
      "Ġpassen": 6686,
      "Ġscrews": 6687,
      "Ġburst": 6688,
      "Ġfluttering": 6689,
      "Ġtravelled": 6690,
      "Ġhus": 6691,
      "Ġdads": 6692,
      "Ġteased": 6693,
      "ndpare": 6694,
      "ĠWithout": 6695,
      "Ġconsequences": 6696,
      "Ġchop": 6697,
      "ĠRobby": 6698,
      "Ġcreativity": 6699,
      "Ġexperien": 6700,
      "Ġdiscussed": 6701,
      "Ġswimsuit": 6702,
      "Ġpuppies": 6703,
      "ĠTwo": 6704,
      "rigued": 6705,
      "Fin": 6706,
      "Ġneither": 6707,
      "ĠEverybody": 6708,
      "ĠNina": 6709,
      "Ġforgets": 6710,
      "Maria": 6711,
      "Nina": 6712,
      "ne": 6713,
      "Ġcoup": 6714,
      "Ġmerry": 6715,
      "Ġstool": 6716,
      "Ġweeke": 6717,
      "umbling": 6718,
      "Ġwrapping": 6719,
      "Ġweekend": 6720,
      "Ġhelpers": 6721,
      "Ġgrandpare": 6722,
      "Great": 6723,
      "ded": 6724,
      "ĠTara": 6725,
      "Ġstung": 6726,
      "Ġgracefully": 6727,
      "Ġincluding": 6728,
      "Ġperformance": 6729,
      "Katie": 6730,
      "Time": 6731,
      "eal": 6732,
      "ades": 6733,
      "Ġfears": 6734,
      "Ġtunnels": 6735,
      "Ġtiptoed": 6736,
      "Pe": 6737,
      "Ġwadd": 6738,
      "Ġmer": 6739,
      "Ġthird": 6740,
      "Ġstain": 6741,
      "Ġdollars": 6742,
      "ĠBluey": 6743,
      "Ġcuddly": 6744,
      "Ġavoid": 6745,
      "Ġenthusi": 6746,
      "ĠGoodbye": 6747,
      "Ġtemperature": 6748,
      "oey": 6749,
      "Ġhearing": 6750,
      "armer": 6751,
      "Ġgross": 6752,
      "ept": 6753,
      "ĠPo": 6754,
      "anging": 6755,
      "Ġsource": 6756,
      "Ġenthusiasm": 6757,
      "itted": 6758,
      "Ġfact": 6759,
      "Ġseparated": 6760,
      "dri": 6761,
      "ĠQ": 6762,
      "anes": 6763,
      "Ġonions": 6764,
      "elia": 6765,
      "ĠPrincess": 6766,
      "Ġcoloring": 6767,
      "Ġhandsome": 6768,
      "Ġshrinking": 6769,
      "Ġneatly": 6770,
      "Ġgrowls": 6771,
      "ĠFrosty": 6772,
      "immering": 6773,
      "Ġafford": 6774,
      "Ġlimes": 6775,
      "ĠMick": 6776,
      "Ġchip": 6777,
      "using": 6778,
      "Ġzipping": 6779,
      "ĠOlive": 6780,
      "Ġhusband": 6781,
      "Ġcouple": 6782,
      "Dan": 6783,
      "atul": 6784,
      "ĠSophia": 6785,
      "Ġech": 6786,
      "Ġrising": 6787,
      "step": 6788,
      "ueen": 6789,
      "Ġsnowfl": 6790,
      "Ġhides": 6791,
      "Ġrivers": 6792,
      "Meow": 6793,
      "Ġaccomplishment": 6794,
      "Milly": 6795,
      "Wh": 6796,
      "sa": 6797,
      "ĠSque": 6798,
      "Ġslices": 6799,
      "Ġdollhouse": 6800,
      "uggles": 6801,
      "Ġcousin": 6802,
      "ky": 6803,
      "ĠHoot": 6804,
      "ntil": 6805,
      "Ġswept": 6806,
      "Ġgrabbing": 6807,
      "Ġbully": 6808,
      "Ġwindy": 6809,
      "Ġbeloved": 6810,
      "Ġpromises": 6811,
      "Ġplans": 6812,
      "Ew": 6813,
      "For": 6814,
      "Ġcor": 6815,
      "Ġgri": 6816,
      "Ġbeam": 6817,
      "ĠBinky": 6818,
      "choo": 6819,
      "Ġgrassy": 6820,
      "Ġpeacefully": 6821,
      "Ġhoriz": 6822,
      "Ġblocking": 6823,
      "Ġbows": 6824,
      "hog": 6825,
      "Ġbatteries": 6826,
      "Ġrewarded": 6827,
      "mallow": 6828,
      "weed": 6829,
      "Ġnine": 6830,
      "ĠJay": 6831,
      "Ġthrown": 6832,
      "ĠSnuggles": 6833,
      "arshmallow": 6834,
      "Ġsprinkled": 6835,
      "Roar": 6836,
      "Ġhorizon": 6837,
      "Fo": 6838,
      "Have": 6839,
      "Ġplayers": 6840,
      "Ġwilling": 6841,
      "Ġstudents": 6842,
      "Ġdamage": 6843,
      "Whee": 6844,
      "Ġamong": 6845,
      "Ġdreamt": 6846,
      "Ġmuscle": 6847,
      "Ġnapkins": 6848,
      "Ġneighbours": 6849,
      "Ġmatters": 6850,
      "Ġleaning": 6851,
      "Oops": 6852,
      "Ġaud": 6853,
      "Ġdarling": 6854,
      "Ġbackwards": 6855,
      "ĠWally": 6856,
      "Ġpecked": 6857,
      "ĠThose": 6858,
      "Ġrecipe": 6859,
      "Ġforgiven": 6860,
      "An": 6861,
      "Lilly": 6862,
      "Ġbodies": 6863,
      "iece": 6864,
      "Ġtails": 6865,
      "Ġseaweed": 6866,
      "Ġwishing": 6867,
      "Ġseconds": 6868,
      "Ġhitting": 6869,
      "Ġwept": 6870,
      "Ġprinting": 6871,
      "Ġdecorating": 6872,
      "ĠĠĊ": 6873,
      "Ġhour": 6874,
      "Ġalien": 6875,
      "ushing": 6876,
      "Ġprett": 6877,
      "Ġheading": 6878,
      "Ġplanning": 6879,
      "Blue": 6880,
      "Woof": 6881,
      "Ġdod": 6882,
      "Ġreass": 6883,
      "Ġgobbled": 6884,
      "Ġstarfish": 6885,
      "Ġfeeding": 6886,
      "Ġpraying": 6887,
      "Ġbuzzed": 6888,
      "ĠBirthday": 6889,
      "Ġconcer": 6890,
      "Ġtriangles": 6891,
      "Ġcenter": 6892,
      "Ducky": 6893,
      "Ġdancers": 6894,
      "Ġpops": 6895,
      "Ġrepa": 6896,
      "Ġgasp": 6897,
      "Ġforks": 6898,
      "Ġrustling": 6899,
      "Ġsnuggle": 6900,
      "Ġheavier": 6901,
      "Ġprettier": 6902,
      "ĠLaura": 6903,
      "Ġdrawn": 6904,
      "Ġsurroundings": 6905,
      "Ġrequested": 6906,
      "Ġwarnings": 6907,
      "Ġrepaired": 6908,
      "wk": 6909,
      "Ġdet": 6910,
      "Ġspong": 6911,
      "ĠListen": 6912,
      "Ġstreets": 6913,
      "Ġdesigned": 6914,
      "Ġhedgehog": 6915,
      "Boo": 6916,
      "Tina": 6917,
      "Ġdie": 6918,
      "ados": 6919,
      "Ġarr": 6920,
      "ĠJacob": 6921,
      "Ġtreehouse": 6922,
      "Ġtwice": 6923,
      "ĠNick": 6924,
      "Ġslower": 6925,
      "Ġ10": 6926,
      "Miss": 6927,
      "Ġwoof": 6928,
      "Ġtouc": 6929,
      "Ġplain": 6930,
      "ĠLena": 6931,
      "Ġposter": 6932,
      "Ġmagician": 6933,
      "Ġwiping": 6934,
      "Ġvanilla": 6935,
      "ĠQueen": 6936,
      "Baby": 6937,
      "itude": 6938,
      "Ġmarshmallow": 6939,
      "arrow": 6940,
      "Ġhawk": 6941,
      "fus": 6942,
      "Ġache": 6943,
      "ĠRemember": 6944,
      "Ġembarrass": 6945,
      "ĠRobert": 6946,
      "Ġslammed": 6947,
      "Ġlungs": 6948,
      "By": 6949,
      "fall": 6950,
      "urious": 6951,
      "eds": 6952,
      "irrel": 6953,
      "esp": 6954,
      "Ġropes": 6955,
      "ongr": 6956,
      "Ġintrigued": 6957,
      "Ġcreations": 6958,
      "Ġforgetting": 6959,
      "Ġthud": 6960,
      "Ġsuperheroes": 6961,
      "Ġhesitant": 6962,
      "Ġsy": 6963,
      "Ġadult": 6964,
      "Ġcounts": 6965,
      "ments": 6966,
      "Ġspoonful": 6967,
      "Ġavocados": 6968,
      "Ġnood": 6969,
      "Ġskunk": 6970,
      "Ġpotion": 6971,
      "Ġaudience": 6972,
      "ongratul": 6973,
      "--": 6974,
      "Yummy": 6975,
      "ippy": 6976,
      "Ġwag": 6977,
      "Ġpens": 6978,
      "Ġscamp": 6979,
      "Ġflas": 6980,
      "ĠJacky": 6981,
      "Ġspreading": 6982,
      "Ġborrowed": 6983,
      "Ġresisted": 6984,
      "Ġblast": 6985,
      "Ġstands": 6986,
      "Ġbreathed": 6987,
      "Clara": 6988,
      "Ġgeese": 6989,
      "Ġtoddler": 6990,
      "Tw": 6991,
      "jo": 6992,
      "ition": 6993,
      "Ġsofter": 6994,
      "ently": 6995,
      "Ġswords": 6996,
      "Ġwarmer": 6997,
      "Ġfamiliar": 6998,
      "Ġsponge": 6999,
      "cake": 7000,
      "yan": 7001,
      "Ġsan": 7002,
      "Ġpeppers": 7003,
      "ĠCra": 7004,
      "Ġjoyful": 7005,
      "Ġimagining": 7006,
      "Ġpresses": 7007,
      "Ġdelivering": 7008,
      "ĠFriends": 7009,
      "Ruby": 7010,
      "Ġscrewdri": 7011,
      "Ġscraped": 7012,
      "Ġtouches": 7013,
      "Nemo": 7014,
      "Ġpours": 7015,
      "ido": 7016,
      "Ġage": 7017,
      "ĠPam": 7018,
      "Ġthroughout": 7019,
      "ĠOwl": 7020,
      "ĠMikey": 7021,
      "Surpr": 7022,
      "Ġmunch": 7023,
      "Ġnibb": 7024,
      "endy": 7025,
      "Ġchanging": 7026,
      "ounce": 7027,
      "Ġhonked": 7028,
      "Ġzebras": 7029,
      "Ġsqueak": 7030,
      "Ġfirefighter": 7031,
      "Ġmesmerized": 7032,
      "sure": 7033,
      "Ġroars": 7034,
      "Ġglued": 7035,
      "Ġwrink": 7036,
      "Ġremembering": 7037,
      "Ġtalks": 7038,
      "Ġpolar": 7039,
      "Ġbaths": 7040,
      "ĠThanks": 7041,
      "Ġshops": 7042,
      "ably": 7043,
      "Ġsports": 7044,
      "Ġfocused": 7045,
      "Ġscrewdriver": 7046,
      "ĠSun": 7047,
      "opsy": 7048,
      "Ġcuriously": 7049,
      "Ġdropping": 7050,
      "Ġcorners": 7051,
      "Ġwhispers": 7052,
      "Ġsank": 7053,
      "Jul": 7054,
      "Ġnur": 7055,
      "allowed": 7056,
      "Ġleast": 7057,
      "Ġswallowed": 7058,
      "ĠFarmer": 7059,
      "aster": 7060,
      "Ġlifts": 7061,
      "ael": 7062,
      "Ġspices": 7063,
      "Ġblinking": 7064,
      "Ġpuff": 7065,
      "ichael": 7066,
      "Ġmints": 7067,
      "ounced": 7068,
      "Ġexpress": 7069,
      "Ġgranted": 7070,
      "ĠJudy": 7071,
      "Ġspikes": 7072,
      "ĠAbbie": 7073,
      "Ġsquishy": 7074,
      "Ġsailors": 7075,
      "Ġhopeful": 7076,
      "Ġtoaster": 7077,
      "Kim": 7078,
      "Like": 7079,
      "Ġneare": 7080,
      "ĠJune": 7081,
      "arac": 7082,
      "Ġpeck": 7083,
      "Ġcrew": 7084,
      "ĠAsh": 7085,
      "Ġnecklaces": 7086,
      "ĠOnly": 7087,
      "Ġpostman": 7088,
      "Ġreflection": 7089,
      "ĠTake": 7090,
      "ĠTuna": 7091,
      "Ġfeast": 7092,
      "Ġcond": 7093,
      "Ġposs": 7094,
      "Ġslips": 7095,
      "Ġsteady": 7096,
      "ĠTodd": 7097,
      "Ġpennies": 7098,
      "Ġrefreshing": 7099,
      "ears": 7100,
      "sie": 7101,
      "imon": 7102,
      "Ġwobbled": 7103,
      "Ġtested": 7104,
      "Ġsniffs": 7105,
      "Ġgrandparents": 7106,
      "Ġmarshmallows": 7107,
      "uzzy": 7108,
      "yes": 7109,
      "Ġwakes": 7110,
      "Ġoh": 7111,
      "Ġrout": 7112,
      "Ġchos": 7113,
      "Ġsneezing": 7114,
      "Ġshaped": 7115,
      "Ġdived": 7116,
      "ĠNobody": 7117,
      "Ġoysters": 7118,
      "Ġincreased": 7119,
      "ĠMaya": 7120,
      "Ġchosen": 7121,
      "vil": 7122,
      "worm": 7123,
      "anie": 7124,
      "Ġreason": 7125,
      "Ġspins": 7126,
      "Ġflight": 7127,
      "ĠZip": 7128,
      "ĠUntil": 7129,
      "Quick": 7130,
      "Ġsewing": 7131,
      "Ġgreeted": 7132,
      "Bill": 7133,
      "Our": 7134,
      "mates": 7135,
      "Ġtiss": 7136,
      "erate": 7137,
      "Ġrushing": 7138,
      "Ġaside": 7139,
      "ĠLi": 7140,
      "otten": 7141,
      "Ġjoining": 7142,
      "Ġheroes": 7143,
      "Ġbehaving": 7144,
      "Ġ2": 7145,
      "unched": 7146,
      "Ġkittens": 7147,
      "attered": 7148,
      "ĠOur": 7149,
      "Ġpigeons": 7150,
      "stick": 7151,
      "ĠBee": 7152,
      "ertain": 7153,
      "ĠZoey": 7154,
      "Ġswans": 7155,
      "Ġwiggle": 7156,
      "Br": 7157,
      "fire": 7158,
      "Ġaimed": 7159,
      "Ġdip": 7160,
      "Ġocc": 7161,
      "Ġplayroom": 7162,
      "Ġtapped": 7163,
      "Ġdefe": 7164,
      "Ġdresser": 7165,
      "Ġbiting": 7166,
      "ĠStay": 7167,
      "years": 7168,
      "ĠAbi": 7169,
      "Ġpuppet": 7170,
      "Tweety": 7171,
      "Back": 7172,
      "lves": 7173,
      "Ġrotten": 7174,
      "Ġonward": 7175,
      "Ġplucked": 7176,
      "Ġappreciation": 7177,
      "Sadly": 7178,
      "Tr": 7179,
      "vant": 7180,
      "rect": 7181,
      "Ġmoo": 7182,
      "Ġcharac": 7183,
      "Ġtrot": 7184,
      "Ġadults": 7185,
      "Ġwrigg": 7186,
      "Ġsparks": 7187,
      "Ġencourag": 7188,
      "Ġsending": 7189,
      "Ġconfl": 7190,
      "Ġtrembled": 7191,
      "ĠMickey": 7192,
      "Ġscampered": 7193,
      "Ġcharacter": 7194,
      "iment": 7195,
      "Ġscored": 7196,
      "ĠDr": 7197,
      "Ġexplo": 7198,
      "Ġoffic": 7199,
      "eezes": 7200,
      "eel": 7201,
      "Ġspat": 7202,
      "Ġcoc": 7203,
      "ĠPr": 7204,
      "Ġwarri": 7205,
      "Ġhops": 7206,
      "meal": 7207,
      "Ġbells": 7208,
      "Ġflavors": 7209,
      "Ġmaster": 7210,
      "while": 7211,
      "ĊĊ": 7212,
      "Ġdaring": 7213,
      "ĠFire": 7214,
      "Ġconvers": 7215,
      "Ġstrongest": 7216,
      "Ġdrawers": 7217,
      "Ġpanicked": 7218,
      "Ġguests": 7219,
      "ĠMartha": 7220,
      "ĠPippin": 7221,
      "Ġwaddled": 7222,
      "Su": 7223,
      "Ġtossed": 7224,
      "Ġpins": 7225,
      "Ġnapping": 7226,
      "Ġmanag": 7227,
      "Ġrainy": 7228,
      "Ġamount": 7229,
      "Ġworrying": 7230,
      "ĠKiki": 7231,
      "Ġstacked": 7232,
      "Ġperforming": 7233,
      "Ġoatmeal": 7234,
      "rrr": 7235,
      "ĠSquirrel": 7236,
      "Mine": 7237,
      "Ġsadd": 7238,
      "cky": 7239,
      "Ġscen": 7240,
      "ĠLove": 7241,
      "Ġwobbly": 7242,
      "Ġcausing": 7243,
      "Ġrespected": 7244,
      "Ġsunflowers": 7245,
      "...\"": 7246,
      "Ġproper": 7247,
      "Ġfreedom": 7248,
      "Ġnoodles": 7249,
      "Ġmate": 7250,
      "Ġevil": 7251,
      "retty": 7252,
      "Ġangels": 7253,
      "Ġloading": 7254,
      "Ġseashells": 7255,
      "ĠTry": 7256,
      "Ġgest": 7257,
      "Ġbattle": 7258,
      "ĠFrog": 7259,
      "Ġcorrect": 7260,
      "isc": 7261,
      "Ġstitches": 7262,
      "Ġgardener": 7263,
      "Ġlessons": 7264,
      "Ġprove": 7265,
      "Ġrespond": 7266,
      "ĠSadie": 7267,
      "ppies": 7268,
      "ĠBessie": 7269,
      "ĠWell": 7270,
      "Ġdoorway": 7271,
      "Ġunsure": 7272,
      "Ġcraft": 7273,
      "Ġtables": 7274,
      "Ġcloudy": 7275,
      "Ġshrug": 7276,
      "Ġcushions": 7277,
      "ĠBirdy": 7278,
      "Very": 7279,
      "Ġfaded": 7280,
      "onna": 7281,
      "Ġworn": 7282,
      "ĠLia": 7283,
      "Ġbravest": 7284,
      "Ġgrows": 7285,
      "ĠStella": 7286,
      "Ġleads": 7287,
      "Ġwatering": 7288,
      "iley": 7289,
      "Ġsmallest": 7290,
      "Ġrains": 7291,
      "Ġcrashing": 7292,
      "Ġduckling": 7293,
      "Ġaction": 7294,
      "Ġcoop": 7295,
      "Ġfrowning": 7296,
      "ĠPatty": 7297,
      "Ġfirefly": 7298,
      "Ġfirmly": 7299,
      "ĠSqueaky": 7300,
      "Ġcoral": 7301,
      "Ġearn": 7302,
      "Ġund": 7303,
      "ĠBaa": 7304,
      "Ġclues": 7305,
      "Ġmonths": 7306,
      "Ġsails": 7307,
      "Ġsurv": 7308,
      "Ġtwisty": 7309,
      "Ġdesigns": 7310,
      "Ġwider": 7311,
      "ĠAmelia": 7312,
      "Ġdefin": 7313,
      "Ġpassengers": 7314,
      "Ġtissue": 7315,
      "ody": 7316,
      "please": 7317,
      "Ġais": 7318,
      "Ġheight": 7319,
      "Ġcosy": 7320,
      "plash": 7321,
      "bbling": 7322,
      "ĠFido": 7323,
      "ĠRay": 7324,
      "Ġpolitely": 7325,
      "Ġpays": 7326,
      "Ġnervously": 7327,
      "Ġhumans": 7328,
      "Ġbehavior": 7329,
      "dress": 7330,
      "now": 7331,
      "Ġbru": 7332,
      "Ġovercome": 7333,
      "Ġbelts": 7334,
      "Beep": 7335,
      "Ġstreamers": 7336,
      "Ġsurrendered": 7337,
      "Ġrobber": 7338,
      "Follow": 7339,
      "Ġencouraging": 7340,
      "Ġties": 7341,
      "onies": 7342,
      "Ġplaytime": 7343,
      "child": 7344,
      "Ġflown": 7345,
      "emma": 7346,
      "Ġdrivers": 7347,
      "iel": 7348,
      "Ġgonna": 7349,
      "ening": 7350,
      "Ġnearly": 7351,
      "Ġpumpkins": 7352,
      "Ġgrandchild": 7353,
      "Ġfleas": 7354,
      "Ġyielded": 7355,
      "Ġmerma": 7356,
      "Ġdefinitely": 7357,
      "During": 7358,
      "bird": 7359,
      "Ġni": 7360,
      "Ġinj": 7361,
      "ĠEx": 7362,
      "Ġpoppies": 7363,
      "iona": 7364,
      "Ġlaying": 7365,
      "Ġcrossing": 7366,
      "undred": 7367,
      "Ġtravelling": 7368,
      "Ġperformed": 7369,
      "ĠGranny": 7370,
      "Even": 7371,
      "Ġtuck": 7372,
      "Ġnuzz": 7373,
      "anwhile": 7374,
      "Ġyel": 7375,
      "Ġshady": 7376,
      "Ġraces": 7377,
      "Ġblocked": 7378,
      "Ġlifting": 7379,
      "Ġignoring": 7380,
      "Ġshovels": 7381,
      "Ġquarreling": 7382,
      "alloween": 7383,
      "ĠMeg": 7384,
      "Jerry": 7385,
      "lets": 7386,
      "Ġease": 7387,
      "Ġscient": 7388,
      "ĠElly": 7389,
      "antastic": 7390,
      "Ġwobble": 7391,
      "athy": 7392,
      "issa": 7393,
      "Ġresults": 7394,
      "ĠAlong": 7395,
      "Ġsuggestion": 7396,
      "Ġsuits": 7397,
      "Ġcampfire": 7398,
      "Ġsymbols": 7399,
      "Ġtwinkled": 7400,
      "Ġbrushing": 7401,
      "Ġcommun": 7402,
      "Ġyelped": 7403,
      "Ġscientist": 7404,
      "Watch": 7405,
      "but": 7406,
      "ibbit": 7407,
      "upt": 7408,
      "rey": 7409,
      "ĠHalloween": 7410,
      "Ġshown": 7411,
      "Ġreun": 7412,
      "roken": 7413,
      "Ġscurry": 7414,
      "Ġleapt": 7415,
      "Ġbless": 7416,
      "Ġpound": 7417,
      "Ġponies": 7418,
      "ĠSc": 7419,
      "ongo": 7420,
      "acles": 7421,
      "Ġcolder": 7422,
      "Ġquieter": 7423,
      "Ġappreciated": 7424,
      "?!\"": 7425,
      "fly": 7426,
      "ĠAng": 7427,
      "ighting": 7428,
      "ĠEva": 7429,
      "Ġwaterfall": 7430,
      "Ġfinal": 7431,
      "Ġsqueezing": 7432,
      "Ġfills": 7433,
      "Ġhairdress": 7434,
      "ĠZero": 7435,
      "Ġfishes": 7436,
      "Ġcobwebs": 7437,
      "Ġpunishment": 7438,
      "Ġthorns": 7439,
      "Ġsnowflakes": 7440,
      "Bet": 7441,
      "abby": 7442,
      "Ġfantastic": 7443,
      "elie": 7444,
      "Ġsurprising": 7445,
      "Ġtricycle": 7446,
      "Ġedges": 7447,
      "Ġpreparing": 7448,
      "Ġgrandd": 7449,
      "Ġreversed": 7450,
      "Ġofficers": 7451,
      "Listen": 7452,
      "Ġanger": 7453,
      "Ġfinishing": 7454,
      "ĠRock": 7455,
      "Ġchopped": 7456,
      "Ġpaths": 7457,
      "ĠStan": 7458,
      "Ġgenie": 7459,
      "ĠRobbie": 7460,
      "Ġpassports": 7461,
      "ĠJanie": 7462,
      "rup": 7463,
      "ooky": 7464,
      "Ġhanding": 7465,
      "ĠRalph": 7466,
      "Ġtighter": 7467,
      "Ġpaintbrush": 7468,
      "ĠStar": 7469,
      "Ġloops": 7470,
      "Ġburying": 7471,
      "Ġsuffered": 7472,
      "espite": 7473,
      "Ġoccas": 7474,
      "Ġhairdresser": 7475,
      "Ġsever": 7476,
      "Ġslither": 7477,
      "Ġbraver": 7478,
      "Whenever": 7479,
      "Ġunw": 7480,
      "Ġhealing": 7481,
      "Ġdistract": 7482,
      "Ġbandages": 7483,
      "Ġgiggles": 7484,
      "Ġreminding": 7485,
      "ĠDavey": 7486,
      "Ġdisturbing": 7487,
      "Ġechoed": 7488,
      "fia": 7489,
      "Ġtying": 7490,
      "Ġgap": 7491,
      "ppa": 7492,
      "Ġnotes": 7493,
      "Ġforests": 7494,
      "ĠRyan": 7495,
      "Ġsmelling": 7496,
      "Ġbaskets": 7497,
      "ĠAlthough": 7498,
      "Ġsniffing": 7499,
      "Ġsurfing": 7500,
      "Ġsurfboard": 7501,
      "laying": 7502,
      "Ġseveral": 7503,
      "Ros": 7504,
      "cent": 7505,
      "ĠX": 7506,
      "Ġcertain": 7507,
      "Ġcleaner": 7508,
      "Ġcollap": 7509,
      "Ġfits": 7510,
      "ĠLouise": 7511,
      "Ġrisks": 7512,
      "Ġconnected": 7513,
      "Ġsyrup": 7514,
      "Hannah": 7515,
      "Ġtipped": 7516,
      "Ġsou": 7517,
      "Ġcongratul": 7518,
      "Ġrays": 7519,
      "rier": 7520,
      "ĠMabel": 7521,
      "Ġsnort": 7522,
      "ĠZara": 7523,
      "Ġspits": 7524,
      "Ġlicking": 7525,
      "Ġconflict": 7526,
      "Jamie": 7527,
      "Ġhundred": 7528,
      "Ġcoug": 7529,
      "Ġmaker": 7530,
      "Ġstopping": 7531,
      "Ġsweetest": 7532,
      "Ġpackages": 7533,
      "Ġpuzzled": 7534,
      "Ġseller": 7535,
      "ĠUnder": 7536,
      "Ġtravels": 7537,
      "ĠSnowman": 7538,
      "Excited": 7539,
      "Ġcottage": 7540,
      "iscuit": 7541,
      "broken": 7542,
      "vroom": 7543,
      "inger": 7544,
      "ĠMouse": 7545,
      "Ġspooky": 7546,
      "Ġconqu": 7547,
      "ĠGina": 7548,
      "Ġdrown": 7549,
      "Ġbelieving": 7550,
      "Ġships": 7551,
      "Ġexamining": 7552,
      "Ġmagnif": 7553,
      "Ġbreathing": 7554,
      "Ġsqueaked": 7555,
      "Ġpurr": 7556,
      "Ġefforts": 7557,
      "bage": 7558,
      "ca": 7559,
      "athan": 7560,
      "ĠFlopsy": 7561,
      "Ġmailed": 7562,
      "Ġgarbage": 7563,
      "Ġcuddles": 7564,
      "Surprise": 7565,
      "Bunny": 7566,
      "Mad": 7567,
      "erm": 7568,
      "ĠBow": 7569,
      "Ġprob": 7570,
      "Ġslipping": 7571,
      "ĠGreen": 7572,
      "ĠZoomy": 7573,
      "Ġfrowns": 7574,
      "Ġlending": 7575,
      "Ġwhispering": 7576,
      "Ġsuffering": 7577,
      "eeling": 7578,
      "Ġprobably": 7579,
      "cher": 7580,
      "Ġlent": 7581,
      "onse": 7582,
      "ading": 7583,
      "Ġshoo": 7584,
      "asty": 7585,
      "Ġbuses": 7586,
      "Ġelf": 7587,
      "Ġresponse": 7588,
      "Ġaddress": 7589,
      "Ġawo": 7590,
      "Ġtubes": 7591,
      "Ġinchworm": 7592,
      "Ġmermaid": 7593,
      "Mira": 7594,
      "Poppy": 7595,
      "line": 7596,
      "isions": 7597,
      "ancy": 7598,
      "Ġthoughts": 7599,
      "inkle": 7600,
      "Ġguide": 7601,
      "Ġplanting": 7602,
      "Ġspells": 7603,
      "Ġrepeating": 7604,
      "Ġbothering": 7605,
      "Ġgears": 7606,
      "Ġarranged": 7607,
      "Tony": 7608,
      "ĠOkay": 7609,
      "Ġdump": 7610,
      "ĠIm": 7611,
      "Ġexcept": 7612,
      "Ġmemb": 7613,
      "Ġcharge": 7614,
      "Ġtablet": 7615,
      "Ġhumming": 7616,
      "Ġsharks": 7617,
      "ĠUp": 7618,
      "Ġmasterp": 7619,
      "Ġforgiving": 7620,
      "Ġtrotted": 7621,
      "Ġgesture": 7622,
      "Ġmembers": 7623,
      "Get": 7624,
      "found": 7625,
      "Ġcoach": 7626,
      "Ġfins": 7627,
      "Ġluckily": 7628,
      "Ġresponsib": 7629,
      "Ġsewed": 7630,
      "Ġdamaged": 7631,
      "Ġcustomers": 7632,
      "Ġgrip": 7633,
      "Ted": 7634,
      "Ġtil": 7635,
      "ĠHoney": 7636,
      "utter": 7637,
      "Ġrather": 7638,
      "Ġwithin": 7639,
      "ĠWendy": 7640,
      "Ġgoodby": 7641,
      "Ġdecisions": 7642,
      "ĠDin": 7643,
      "bba": 7644,
      "Ġexplorer": 7645,
      "Ġdriveway": 7646,
      "Ġchocolates": 7647,
      "Ġsupported": 7648,
      "ĠQuick": 7649,
      "Ġinstruments": 7650,
      "Since": 7651,
      "Vroom": 7652,
      "Ġwasting": 7653,
      "Ġlies": 7654,
      "Ġwhose": 7655,
      "antha": 7656,
      "Ġcotton": 7657,
      "Ġannoyed": 7658,
      "Ġgoodbyes": 7659,
      "ĠSatur": 7660,
      "Ġsoaking": 7661,
      "Ġweeds": 7662,
      "Ġknots": 7663,
      "ĠFighting": 7664,
      "Ġunderstands": 7665,
      "ails": 7666,
      "Ġantic": 7667,
      "ĠPatch": 7668,
      "Ġrotting": 7669,
      "Ġvehicles": 7670,
      "Ġpupils": 7671,
      "Ġaccomplished": 7672,
      "Frank": 7673,
      "Ġnurses": 7674,
      "Ġwarrior": 7675,
      "Ġreunited": 7676,
      "ĠSaturday": 7677,
      "Ġreapp": 7678,
      "Ġalthough": 7679,
      "Ġpeas": 7680,
      "Ġteles": 7681,
      "Ġcheers": 7682,
      "Ġdangers": 7683,
      "ĠRain": 7684,
      "Ġcalmly": 7685,
      "Ġrobots": 7686,
      "Ġnovels": 7687,
      "Ġtelescope": 7688,
      "Mimi": 7689,
      "iens": 7690,
      "Ġmood": 7691,
      "ammy": 7692,
      "Ġstumble": 7693,
      "ĠBongo": 7694,
      "asers": 7695,
      "Ġnewfound": 7696,
      "Ġtweet": 7697,
      "ilda": 7698,
      "acle": 7699,
      "Ġelbow": 7700,
      "Ġsweat": 7701,
      "Ġstomp": 7702,
      "Ġdiscussing": 7703,
      "Ġmaterial": 7704,
      "Ġdespite": 7705,
      "ĠQuackers": 7706,
      "Ġcowboy": 7707,
      "Rachel": 7708,
      "aven": 7709,
      "mies": 7710,
      "ĠSimon": 7711,
      "Ġheartbroken": 7712,
      "Ġcrowns": 7713,
      "Ġwisely": 7714,
      "Ġtwisting": 7715,
      "Ġpermitted": 7716,
      "steps": 7717,
      "ĠAshley": 7718,
      "Ġconversation": 7719,
      "Ġbuddy": 7720,
      "ooking": 7721,
      "Ġaliens": 7722,
      "Ġchanges": 7723,
      "Ġswo": 7724,
      "iza": 7725,
      "Ġbelongings": 7726,
      "Ġwhistles": 7727,
      "Ġtidied": 7728,
      "Ġclassmates": 7729,
      "Ġspills": 7730,
      "crow": 7731,
      "Ġtar": 7732,
      "Ġdarl": 7733,
      "Ġbits": 7734,
      "ugging": 7735,
      "Ġteachers": 7736,
      "Steve": 7737,
      "Ġfootsteps": 7738,
      "Ġguessing": 7739,
      "Ġwealth": 7740,
      "ĠPepper": 7741,
      "Ġcrystals": 7742,
      "Ġexplains": 7743,
      "Ġrefuse": 7744,
      "Ġreassured": 7745,
      "Ġawoke": 7746,
      "Ġmasterpiece": 7747,
      "Ġswollen": 7748,
      "Ġdarlings": 7749,
      "da": 7750,
      "wise": 7751,
      "Ġaim": 7752,
      "ĠBecause": 7753,
      "ĠMichael": 7754,
      "ĠCle": 7755,
      "Ġvegg": 7756,
      "Ġprayers": 7757,
      "Ġbracelets": 7758,
      "Ġinsisting": 7759,
      "Ġstudent": 7760,
      "Ġpeeled": 7761,
      "Abigail": 7762,
      "Take": 7763,
      "mered": 7764,
      "Ġdot": 7765,
      "Ġgerm": 7766,
      "Ġnasty": 7767,
      "Ġrin": 7768,
      "ĠAny": 7769,
      "Ġscent": 7770,
      "Ġdecl": 7771,
      "Ġvines": 7772,
      "Josh": 7773,
      "ĠStitch": 7774,
      "Ġfigures": 7775,
      "Always": 7776,
      "Ġspeeding": 7777,
      "Ġnibbled": 7778,
      "Ġsill": 7779,
      "lle": 7780,
      "Ġspies": 7781,
      "Ġflipped": 7782,
      "Ġtroubles": 7783,
      "Ġtoolbox": 7784,
      "Ġsolving": 7785,
      "Ġencount": 7786,
      "Ġvibr": 7787,
      "Ġseagulls": 7788,
      "Ġnibble": 7789,
      "Penny": 7790,
      "whe": 7791,
      "hew": 7792,
      "rest": 7793,
      "Ġtreated": 7794,
      "Ġchilly": 7795,
      "Ġuntied": 7796,
      "ĠJoan": 7797,
      "Ġbeautifully": 7798,
      "Ġstored": 7799,
      "Ġtoward": 7800,
      "Ġbusiness": 7801,
      "Ġemer": 7802,
      "Ġcomforting": 7803,
      "Alright": 7804,
      "Ġartwork": 7805,
      "Ġtarget": 7806,
      "Car": 7807,
      "order": 7808,
      "Ġform": 7809,
      "chy": 7810,
      "Ġexch": 7811,
      "Ġbirdhouse": 7812,
      "aula": 7813,
      "sol": 7814,
      "Ġunfortunately": 7815,
      "Ġafar": 7816,
      "Goodnight": 7817,
      "Ġtaped": 7818,
      "Ġexercises": 7819,
      "Ġsurvive": 7820,
      "Ġgranddaughter": 7821,
      "Ġcongratulated": 7822,
      "Jessie": 7823,
      "Mat": 7824,
      "lor": 7825,
      "sm": 7826,
      "what": 7827,
      "idey": 7828,
      "Ġposit": 7829,
      "Ġmarve": 7830,
      "Ġhonking": 7831,
      "Ġservant": 7832,
      "Ġbanged": 7833,
      "Ġaware": 7834,
      "Ġstatues": 7835,
      "Ġmosquitoes": 7836,
      "Ġdelayed": 7837,
      "Ġsimply": 7838,
      "Ġinspired": 7839,
      "Ġveggies": 7840,
      "Boys": 7841,
      "Ġforce": 7842,
      "Ġkings": 7843,
      "ĠMag": 7844,
      "Ġturtles": 7845,
      "Ġrats": 7846,
      "Ġsweaty": 7847,
      "five": 7848,
      "father": 7849,
      "ighing": 7850,
      "artled": 7851,
      "Ġthanking": 7852,
      "Ġtrans": 7853,
      "Ġsquished": 7854,
      "ĠJaney": 7855,
      "Ġgazing": 7856,
      "Ġactivity": 7857,
      "Ġwounds": 7858,
      "gain": 7859,
      "pen": 7860,
      "onnie": 7861,
      "Ġrely": 7862,
      "Ġloses": 7863,
      "ecca": 7864,
      "ĠAlly": 7865,
      "Ġmanners": 7866,
      "dding": 7867,
      "Ġtapping": 7868,
      "Ġuntie": 7869,
      "Ġapologised": 7870,
      "Tweetie": 7871,
      "Ġfocus": 7872,
      "Abby": 7873,
      "Claire": 7874,
      "Jess": 7875,
      "we": 7876,
      "Ġtoss": 7877,
      "Ġdep": 7878,
      "rian": 7879,
      "elvet": 7880,
      "Ġsmashed": 7881,
      "Ġjars": 7882,
      "Ġspy": 7883,
      "Ġjoins": 7884,
      "ipes": 7885,
      "Ġfoxes": 7886,
      "ĠOther": 7887,
      "Ġscram": 7888,
      "Ġsweep": 7889,
      "Ġlabels": 7890,
      "Ġbeeped": 7891,
      "Anne": 7892,
      "ĠPippa": 7893,
      "Ġscurrying": 7894,
      "Ġemerged": 7895,
      "Joy": 7896,
      "uel": 7897,
      "Ġbitten": 7898,
      "orter": 7899,
      "Ġtwenty": 7900,
      "Ġconvin": 7901,
      "Ġdressing": 7902,
      "Ġwarmly": 7903,
      "Ġpurpose": 7904,
      "Ġshrunk": 7905,
      "Ġpresented": 7906,
      "Ġcurl": 7907,
      "Ġghosts": 7908,
      "Ġpandas": 7909,
      "Ġflaps": 7910,
      "Ġoppos": 7911,
      "Ġconcert": 7912,
      "Ġcorrectly": 7913,
      "Ġhen": 7914,
      "Ġstall": 7915,
      "Ġsped": 7916,
      "ĠLion": 7917,
      "Ġsquaw": 7918,
      "Ġpleaded": 7919,
      "ĠAli": 7920,
      "ivia": 7921,
      "Ġtires": 7922,
      "Ġmagazines": 7923,
      "Ġencouragement": 7924,
      "Ġswaying": 7925,
      "ummies": 7926,
      "Two": 7927,
      "Ġwrinkled": 7928,
      "Ġaisle": 7929,
      "Ġanticip": 7930,
      "Lena": 7931,
      "ĠSmo": 7932,
      "Ġrowed": 7933,
      "Ġbea": 7934,
      "Ġwhimp": 7935,
      "ĠFuzzy": 7936,
      "ortun": 7937,
      "ĠCla": 7938,
      "Ġjud": 7939,
      "ĠKaren": 7940,
      "Ġnests": 7941,
      "Ġtrusting": 7942,
      "Ġprick": 7943,
      "ĠFroggy": 7944,
      "Ġglittering": 7945,
      "Ġopportun": 7946,
      "Ġnearest": 7947,
      "Ġtransf": 7948,
      "ats": 7949,
      "Ġsav": 7950,
      "Ġinter": 7951,
      "Ġramp": 7952,
      "Ġcleared": 7953,
      "ĠSofia": 7954,
      "Ġtasting": 7955,
      "Ġpicnics": 7956,
      "Ġrescuing": 7957,
      "Ġgrandfather": 7958,
      "Ġotters": 7959,
      "Ġpedaled": 7960,
      "Ġwiggly": 7961,
      "Ġtype": 7962,
      "Ġnuzzled": 7963,
      "Ġopposite": 7964,
      "Ke": 7965,
      "even": 7966,
      "Ġgall": 7967,
      "ators": 7968,
      "ĠIzzy": 7969,
      "Ġshimmering": 7970,
      "Ġloc": 7971,
      "ddie": 7972,
      "Ġblond": 7973,
      "Ġswimmer": 7974,
      "Ġadds": 7975,
      "Meanwhile": 7976,
      "Ġcovering": 7977,
      "Ġscarecrow": 7978,
      "Ġwindowsill": 7979,
      "Ġdisplayed": 7980,
      "Ġuniforms": 7981,
      "Leave": 7982,
      "Ġswayed": 7983,
      "intment": 7984,
      "Ġcocoon": 7985,
      "Ġanticipation": 7986,
      "Je": 7987,
      "hil": 7988,
      "rily": 7989,
      "its": 7990,
      "idence": 7991,
      "ĠSk": 7992,
      "amma": 7993,
      "acy": 7994,
      "ĠKelly": 7995,
      "Ġvisits": 7996,
      "Ġdesigning": 7997,
      "screen": 7998,
      "Ġlipstick": 7999
    },
    "merges": [
      [
        "h",
        "e"
      ],
      [
        "Ġ",
        "t"
      ],
      [
        "Ġ",
        "a"
      ],
      [
        "Ġ",
        "s"
      ],
      [
        "Ġ",
        "w"
      ],
      [
        "n",
        "d"
      ],
      [
        "Ġt",
        "he"
      ],
      [
        "e",
        "d"
      ],
      [
        "Ġa",
        "nd"
      ],
      [
        "Ġt",
        "o"
      ],
      [
        "Ġ",
        "b"
      ],
      [
        "i",
        "n"
      ],
      [
        "Ġ",
        "h"
      ],
      [
        "Ġw",
        "a"
      ],
      [
        "r",
        "e"
      ],
      [
        "o",
        "u"
      ],
      [
        "Ġ",
        "f"
      ],
      [
        "i",
        "t"
      ],
      [
        "Ġ",
        "l"
      ],
      [
        "Ġ",
        "c"
      ],
      [
        "Ġ",
        "d"
      ],
      [
        "e",
        "r"
      ],
      [
        "Ġ",
        "he"
      ],
      [
        "Ġ",
        "m"
      ],
      [
        "Ġ",
        "p"
      ],
      [
        "Ġwa",
        "s"
      ],
      [
        "Ġ",
        "T"
      ],
      [
        "o",
        "m"
      ],
      [
        "Ġ",
        "o"
      ],
      [
        "a",
        "y"
      ],
      [
        "a",
        "r"
      ],
      [
        "i",
        "s"
      ],
      [
        "in",
        "g"
      ],
      [
        "i",
        "l"
      ],
      [
        "Ġ",
        "g"
      ],
      [
        "i",
        "d"
      ],
      [
        "a",
        "t"
      ],
      [
        "e",
        "n"
      ],
      [
        "Ġ",
        "n"
      ],
      [
        "Ġs",
        "a"
      ],
      [
        "Ġh",
        "a"
      ],
      [
        "ĠT",
        "he"
      ],
      [
        "Ġ",
        "S"
      ],
      [
        "a",
        "n"
      ],
      [
        "i",
        "m"
      ],
      [
        "o",
        "r"
      ],
      [
        "o",
        "n"
      ],
      [
        "Ġ",
        "it"
      ],
      [
        "Ġt",
        "h"
      ],
      [
        "l",
        "l"
      ],
      [
        "l",
        "e"
      ],
      [
        "Ġ",
        "H"
      ],
      [
        "o",
        "t"
      ],
      [
        "Ġhe",
        "r"
      ],
      [
        "e",
        "t"
      ],
      [
        "i",
        "r"
      ],
      [
        "ĠS",
        "he"
      ],
      [
        "e",
        "s"
      ],
      [
        "ĠH",
        "e"
      ],
      [
        "Ġ",
        "in"
      ],
      [
        "v",
        "er"
      ],
      [
        "ĠThe",
        "y"
      ],
      [
        "u",
        "t"
      ],
      [
        "o",
        "w"
      ],
      [
        "c",
        "k"
      ],
      [
        "Ġ",
        "e"
      ],
      [
        "Ġ",
        "u"
      ],
      [
        "Ġ",
        "y"
      ],
      [
        "l",
        "d"
      ],
      [
        "Ġ",
        "\""
      ],
      [
        "o",
        "o"
      ],
      [
        "il",
        "y"
      ],
      [
        "Ġsa",
        "id"
      ],
      [
        "i",
        "g"
      ],
      [
        "Ġ",
        "r"
      ],
      [
        "Ġb",
        "e"
      ],
      [
        "a",
        "m"
      ],
      [
        "Ġ",
        "I"
      ],
      [
        "Ġs",
        "t"
      ],
      [
        "k",
        "e"
      ],
      [
        "c",
        "e"
      ],
      [
        "v",
        "e"
      ],
      [
        "it",
        "h"
      ],
      [
        "p",
        "p"
      ],
      [
        "Ġs",
        "he"
      ],
      [
        "L",
        "ily"
      ],
      [
        "Ġw",
        "ith"
      ],
      [
        "O",
        "n"
      ],
      [
        "Ġo",
        "n"
      ],
      [
        "Ġy",
        "ou"
      ],
      [
        "k",
        "ed"
      ],
      [
        "Ġo",
        "f"
      ],
      [
        "r",
        "i"
      ],
      [
        "Ġp",
        "l"
      ],
      [
        "n",
        "t"
      ],
      [
        "Ġh",
        "is"
      ],
      [
        "a",
        "d"
      ],
      [
        "Ġs",
        "o"
      ],
      [
        "ver",
        "y"
      ],
      [
        "Ġd",
        "ay"
      ],
      [
        "Ġth",
        "at"
      ],
      [
        "Ġu",
        "p"
      ],
      [
        "Ġ",
        "Lily"
      ],
      [
        "Ġpl",
        "ay"
      ],
      [
        "Ġha",
        "d"
      ],
      [
        "Ġthe",
        "y"
      ],
      [
        "s",
        "t"
      ],
      [
        "Ġw",
        "e"
      ],
      [
        "Ġm",
        "om"
      ],
      [
        "Ġ",
        "B"
      ],
      [
        "Ġf",
        "or"
      ],
      [
        "'",
        "s"
      ],
      [
        "e",
        "l"
      ],
      [
        "u",
        "n"
      ],
      [
        "ou",
        "ld"
      ],
      [
        "m",
        "y"
      ],
      [
        "T",
        "he"
      ],
      [
        "Ġl",
        "i"
      ],
      [
        "c",
        "h"
      ],
      [
        "Ġha",
        "pp"
      ],
      [
        "Ġwa",
        "nt"
      ],
      [
        "en",
        "t"
      ],
      [
        "Ġs",
        "h"
      ],
      [
        "it",
        "t"
      ],
      [
        "he",
        "r"
      ],
      [
        "ou",
        "t"
      ],
      [
        "Ġn",
        "ot"
      ],
      [
        "Ġd",
        "o"
      ],
      [
        "om",
        "e"
      ],
      [
        "s",
        "e"
      ],
      [
        "Ġ",
        "very"
      ],
      [
        "l",
        "y"
      ],
      [
        "e",
        "nd"
      ],
      [
        "a",
        "ll"
      ],
      [
        "ou",
        "nd"
      ],
      [
        "Ġw",
        "h"
      ],
      [
        "Ġ",
        "k"
      ],
      [
        "im",
        "e"
      ],
      [
        "itt",
        "le"
      ],
      [
        "Ġt",
        "ime"
      ],
      [
        "a",
        "l"
      ],
      [
        "Ġl",
        "ittle"
      ],
      [
        "Ġn",
        "e"
      ],
      [
        "Ġ",
        "M"
      ],
      [
        "Ġthe",
        "re"
      ],
      [
        "h",
        "t"
      ],
      [
        "Ġ",
        "is"
      ],
      [
        "Ġhapp",
        "y"
      ],
      [
        "Ġb",
        "ig"
      ],
      [
        "ĠI",
        "t"
      ],
      [
        "Ġ",
        "re"
      ],
      [
        ".",
        "\""
      ],
      [
        "Ġs",
        "m"
      ],
      [
        "Ġb",
        "ut"
      ],
      [
        "Ġsa",
        "w"
      ],
      [
        "Ġa",
        "n"
      ],
      [
        "r",
        "a"
      ],
      [
        "r",
        "y"
      ],
      [
        "ri",
        "end"
      ],
      [
        "Ġf",
        "riend"
      ],
      [
        "Ġ",
        "Ċ"
      ],
      [
        "Ġa",
        "s"
      ],
      [
        "a",
        "ck"
      ],
      [
        "!",
        "\""
      ],
      [
        "'",
        "t"
      ],
      [
        "On",
        "e"
      ],
      [
        "id",
        "e"
      ],
      [
        "a",
        "ke"
      ],
      [
        "u",
        "g"
      ],
      [
        "Ġl",
        "oo"
      ],
      [
        "Ġwe",
        "re"
      ],
      [
        "t",
        "er"
      ],
      [
        "v",
        "ed"
      ],
      [
        "Ġl",
        "o"
      ],
      [
        "o",
        "re"
      ],
      [
        "On",
        "ce"
      ],
      [
        "Ġs",
        "e"
      ],
      [
        "Ġto",
        "o"
      ],
      [
        "Ġh",
        "im"
      ],
      [
        "Ġb",
        "o"
      ],
      [
        "Ġg",
        "o"
      ],
      [
        "Ġa",
        "re"
      ],
      [
        "e",
        "c"
      ],
      [
        "ĠT",
        "im"
      ],
      [
        "Ġ",
        "j"
      ],
      [
        "Ġwant",
        "ed"
      ],
      [
        "ar",
        "d"
      ],
      [
        "ir",
        "l"
      ],
      [
        "il",
        "l"
      ],
      [
        "Ġthe",
        "m"
      ],
      [
        "Ġup",
        "on"
      ],
      [
        "Ġg",
        "irl"
      ],
      [
        "Ġthe",
        "ir"
      ],
      [
        "Ġ",
        "out"
      ],
      [
        "Ġa",
        "t"
      ],
      [
        "i",
        "nd"
      ],
      [
        "u",
        "r"
      ],
      [
        "Ġd",
        "id"
      ],
      [
        "w",
        "ay"
      ],
      [
        "f",
        "u"
      ],
      [
        "Ġs",
        "p"
      ],
      [
        "Ġ",
        "A"
      ],
      [
        "Ġc",
        "ould"
      ],
      [
        "Ġsm",
        "il"
      ],
      [
        "he",
        "n"
      ],
      [
        "Ġha",
        "ve"
      ],
      [
        "a",
        "in"
      ],
      [
        "he",
        "d"
      ],
      [
        "ar",
        "t"
      ],
      [
        "ĠB",
        "en"
      ],
      [
        "r",
        "om"
      ],
      [
        "Ġe",
        "x"
      ],
      [
        "?",
        "\""
      ],
      [
        "Ġc",
        "an"
      ],
      [
        "Ġw",
        "ent"
      ],
      [
        "i",
        "c"
      ],
      [
        "Ġa",
        "r"
      ],
      [
        "l",
        "p"
      ],
      [
        "oo",
        "d"
      ],
      [
        "fu",
        "l"
      ],
      [
        "Ġfriend",
        "s"
      ],
      [
        "h",
        "ing"
      ],
      [
        "Ġn",
        "am"
      ],
      [
        "Ġk",
        "n"
      ],
      [
        "ig",
        "ht"
      ],
      [
        "Ġ",
        "J"
      ],
      [
        "Ġhe",
        "lp"
      ],
      [
        "Ġs",
        "ay"
      ],
      [
        "Ġa",
        "ll"
      ],
      [
        "on",
        "e"
      ],
      [
        "u",
        "m"
      ],
      [
        "ar",
        "k"
      ],
      [
        "Ġb",
        "ack"
      ],
      [
        "Y",
        "ou"
      ],
      [
        "Ġf",
        "un"
      ],
      [
        "ĠT",
        "om"
      ],
      [
        "Ġc",
        "l"
      ],
      [
        "a",
        "re"
      ],
      [
        "Ġn",
        "o"
      ],
      [
        "Ġl",
        "e"
      ],
      [
        "o",
        "p"
      ],
      [
        "Ġs",
        "c"
      ],
      [
        "Ġnam",
        "ed"
      ],
      [
        "Ġa",
        "l"
      ],
      [
        "el",
        "t"
      ],
      [
        "ou",
        "g"
      ],
      [
        "Ġm",
        "an"
      ],
      [
        "Ġlo",
        "ved"
      ],
      [
        "s",
        "ide"
      ],
      [
        "Ġsmil",
        "ed"
      ],
      [
        "Ġ",
        "One"
      ],
      [
        "Ġto",
        "y"
      ],
      [
        "Ġli",
        "ke"
      ],
      [
        "i",
        "ck"
      ],
      [
        "Ġf",
        "elt"
      ],
      [
        "Ġf",
        "e"
      ],
      [
        "Ġas",
        "ked"
      ],
      [
        "Ġs",
        "ome"
      ],
      [
        "Ġse",
        "e"
      ],
      [
        "Ġloo",
        "ked"
      ],
      [
        "Ġm",
        "e"
      ],
      [
        "am",
        "e"
      ],
      [
        "Ġar",
        "ound"
      ],
      [
        "Ġr",
        "o"
      ],
      [
        "ĠTim",
        "my"
      ],
      [
        "om",
        "et"
      ],
      [
        "Ġ",
        "W"
      ],
      [
        "u",
        "re"
      ],
      [
        "Ġb",
        "r"
      ],
      [
        "Ġb",
        "ir"
      ],
      [
        "g",
        "et"
      ],
      [
        "i",
        "ce"
      ],
      [
        "Ġbo",
        "y"
      ],
      [
        "Ġw",
        "ould"
      ],
      [
        "on",
        "g"
      ],
      [
        "Ġst",
        "art"
      ],
      [
        "a",
        "s"
      ],
      [
        "Ġbir",
        "d"
      ],
      [
        "Ġs",
        "omet"
      ],
      [
        ",",
        "\""
      ],
      [
        "ing",
        "s"
      ],
      [
        "Ġf",
        "a"
      ],
      [
        "ad",
        "e"
      ],
      [
        "Ġm",
        "ake"
      ],
      [
        "Ġa",
        "g"
      ],
      [
        "Ġwh",
        "at"
      ],
      [
        "Ġw",
        "or"
      ],
      [
        "d",
        "d"
      ],
      [
        "Ġ",
        "You"
      ],
      [
        "Ġsay",
        "s"
      ],
      [
        "ĠB",
        "ut"
      ],
      [
        "k",
        "ing"
      ],
      [
        "Ġa",
        "way"
      ],
      [
        "Ġr",
        "an"
      ],
      [
        "ow",
        "n"
      ],
      [
        "get",
        "her"
      ],
      [
        "Ġt",
        "re"
      ],
      [
        "a",
        "g"
      ],
      [
        "ar",
        "ed"
      ],
      [
        "i",
        "e"
      ],
      [
        "ou",
        "d"
      ],
      [
        "Ġm",
        "ade"
      ],
      [
        "Ġstart",
        "ed"
      ],
      [
        "i",
        "f"
      ],
      [
        "Ġc",
        "ar"
      ],
      [
        "Ġto",
        "gether"
      ],
      [
        "Ġsomet",
        "hing"
      ],
      [
        "Ġc",
        "o"
      ],
      [
        "t",
        "her"
      ],
      [
        "Ġp",
        "ark"
      ],
      [
        "Ġsa",
        "d"
      ],
      [
        "Ġo",
        "ther"
      ],
      [
        "it",
        "ed"
      ],
      [
        "Ġp",
        "ut"
      ],
      [
        "Ġne",
        "w"
      ],
      [
        "Ġf",
        "rom"
      ],
      [
        "e",
        "ll"
      ],
      [
        "Ġh",
        "ug"
      ],
      [
        "Ġp",
        "r"
      ],
      [
        "b",
        "le"
      ],
      [
        "Ġag",
        "ain"
      ],
      [
        "oo",
        "k"
      ],
      [
        "Ġex",
        "c"
      ],
      [
        "a",
        "ch"
      ],
      [
        "Ġ",
        "L"
      ],
      [
        "Ġg",
        "ood"
      ],
      [
        "Ġh",
        "ome"
      ],
      [
        "Ġl",
        "a"
      ],
      [
        "Ġm",
        "u"
      ],
      [
        "s",
        "s"
      ],
      [
        "Ġw",
        "hen"
      ],
      [
        "Ġf",
        "l"
      ],
      [
        "ri",
        "ed"
      ],
      [
        "e",
        "p"
      ],
      [
        "Ġwh",
        "o"
      ],
      [
        "es",
        "t"
      ],
      [
        "Ġthe",
        "n"
      ],
      [
        "Ġf",
        "ound"
      ],
      [
        "Ġc",
        "h"
      ],
      [
        "Ġd",
        "ec"
      ],
      [
        "pp",
        "ed"
      ],
      [
        "h",
        "at"
      ],
      [
        "Ġg",
        "et"
      ],
      [
        "Ġwa",
        "l"
      ],
      [
        "Ġplay",
        "ing"
      ],
      [
        "q",
        "u"
      ],
      [
        "Ġs",
        "w"
      ],
      [
        "oug",
        "ht"
      ],
      [
        "n",
        "n"
      ],
      [
        "Ġli",
        "ked"
      ],
      [
        "u",
        "ck"
      ],
      [
        "Ġth",
        "ings"
      ],
      [
        "Ġ",
        "E"
      ],
      [
        "all",
        "y"
      ],
      [
        "p",
        "l"
      ],
      [
        "ou",
        "s"
      ],
      [
        "Ġg",
        "ot"
      ],
      [
        "Ġb",
        "l"
      ],
      [
        "Ġexc",
        "ited"
      ],
      [
        "r",
        "o"
      ],
      [
        "id",
        "ed"
      ],
      [
        "a",
        "ve"
      ],
      [
        "Ġc",
        "ame"
      ],
      [
        "ar",
        "a"
      ],
      [
        "Ġe",
        "very"
      ],
      [
        "Ġdec",
        "ided"
      ],
      [
        "Ġyou",
        "r"
      ],
      [
        "Ġdo",
        "g"
      ],
      [
        "ĠM",
        "om"
      ],
      [
        "a",
        "x"
      ],
      [
        "Ġsc",
        "ared"
      ],
      [
        "Ġ",
        "D"
      ],
      [
        "Ġon",
        "e"
      ],
      [
        "Ġd",
        "own"
      ],
      [
        "u",
        "st"
      ],
      [
        "Ġ",
        "v"
      ],
      [
        "Ġf",
        "ind"
      ],
      [
        "The",
        "y"
      ],
      [
        "Ġc",
        "are"
      ],
      [
        "nn",
        "a"
      ],
      [
        "ou",
        "se"
      ],
      [
        "a",
        "p"
      ],
      [
        "Ġbe",
        "c"
      ],
      [
        "is",
        "t"
      ],
      [
        "Ġth",
        "an"
      ],
      [
        "n",
        "y"
      ],
      [
        "Ġfe",
        "el"
      ],
      [
        "u",
        "e"
      ],
      [
        "Ġd",
        "ad"
      ],
      [
        "Ġa",
        "b"
      ],
      [
        "Ġw",
        "ill"
      ],
      [
        "Ġm",
        "y"
      ],
      [
        "ar",
        "n"
      ],
      [
        "Ġloo",
        "k"
      ],
      [
        "u",
        "dd"
      ],
      [
        "ou",
        "r"
      ],
      [
        "Ġg",
        "r"
      ],
      [
        "er",
        "s"
      ],
      [
        "Ġ",
        "ke"
      ],
      [
        "Ġg",
        "ra"
      ],
      [
        "u",
        "s"
      ],
      [
        "Ġdid",
        "n"
      ],
      [
        "way",
        "s"
      ],
      [
        "es",
        "s"
      ],
      [
        "Ġp",
        "o"
      ],
      [
        "Ġtoy",
        "s"
      ],
      [
        "Ġtoo",
        "k"
      ],
      [
        "f",
        "e"
      ],
      [
        "nd",
        "er"
      ],
      [
        "Ġab",
        "out"
      ],
      [
        "Ġb",
        "all"
      ],
      [
        "Ġal",
        "ways"
      ],
      [
        "Ġl",
        "ot"
      ],
      [
        "Ġmom",
        "my"
      ],
      [
        "an",
        "t"
      ],
      [
        "ĠS",
        "am"
      ],
      [
        "Ġkn",
        "e"
      ],
      [
        "b",
        "b"
      ],
      [
        "Ġtre",
        "e"
      ],
      [
        "is",
        "e"
      ],
      [
        "Ġout",
        "side"
      ],
      [
        "Ġ",
        "F"
      ],
      [
        "Ġth",
        "ought"
      ],
      [
        "it",
        "e"
      ],
      [
        "Ġm",
        "ore"
      ],
      [
        "Ġt",
        "a"
      ],
      [
        "en",
        "ed"
      ],
      [
        "Ġle",
        "arn"
      ],
      [
        "re",
        "t"
      ],
      [
        "Ġh",
        "o"
      ],
      [
        "c",
        "hed"
      ],
      [
        "Ġkn",
        "ow"
      ],
      [
        "ec",
        "i"
      ],
      [
        "Ġin",
        "t"
      ],
      [
        "g",
        "ed"
      ],
      [
        "Ġs",
        "or"
      ],
      [
        "Ġc",
        "at"
      ],
      [
        "Ġt",
        "ake"
      ],
      [
        "Ġla",
        "ug"
      ],
      [
        "Ġo",
        "ld"
      ],
      [
        "i",
        "ve"
      ],
      [
        "i",
        "a"
      ],
      [
        "ĠM",
        "ax"
      ],
      [
        "Ġsp",
        "eci"
      ],
      [
        "Ġspeci",
        "al"
      ],
      [
        "Ġkne",
        "w"
      ],
      [
        "Ġan",
        "y"
      ],
      [
        "Ġp",
        "e"
      ],
      [
        "udd",
        "en"
      ],
      [
        "f",
        "ter"
      ],
      [
        "Ġh",
        "ow"
      ],
      [
        "Ġsor",
        "ry"
      ],
      [
        "B",
        "ut"
      ],
      [
        "Ġt",
        "r"
      ],
      [
        "m",
        "a"
      ],
      [
        "in",
        "k"
      ],
      [
        "Ġsh",
        "ow"
      ],
      [
        "is",
        "h"
      ],
      [
        "udden",
        "ly"
      ],
      [
        "Ġr",
        "un"
      ],
      [
        "a",
        "u"
      ],
      [
        "Ġs",
        "l"
      ],
      [
        "Ġmu",
        "ch"
      ],
      [
        "a",
        "nd"
      ],
      [
        "Ġt",
        "w"
      ],
      [
        "Ġha",
        "nd"
      ],
      [
        "Ġo",
        "r"
      ],
      [
        "Ġh",
        "ouse"
      ],
      [
        "Ġo",
        "p"
      ],
      [
        "Ġm",
        "o"
      ],
      [
        "Ġwa",
        "ter"
      ],
      [
        "Ġs",
        "k"
      ],
      [
        "v",
        "en"
      ],
      [
        "Ġt",
        "ried"
      ],
      [
        "Ġint",
        "o"
      ],
      [
        "Ġs",
        "un"
      ],
      [
        "an",
        "k"
      ],
      [
        "Ġin",
        "side"
      ],
      [
        "T",
        "om"
      ],
      [
        "Ġcl",
        "o"
      ],
      [
        "at",
        "e"
      ],
      [
        "Ġto",
        "ld"
      ],
      [
        "Ġg",
        "ave"
      ],
      [
        "um",
        "p"
      ],
      [
        "t",
        "y"
      ],
      [
        "ĠS",
        "ara"
      ],
      [
        "Ġpr",
        "oud"
      ],
      [
        "Ġe",
        "ach"
      ],
      [
        "Ġ",
        "qu"
      ],
      [
        "Ġ",
        "en"
      ],
      [
        "Ġ",
        "if"
      ],
      [
        "ĠW",
        "e"
      ],
      [
        "Ġo",
        "ver"
      ],
      [
        "Ġro",
        "om"
      ],
      [
        "Ġcould",
        "n"
      ],
      [
        "Ġhe",
        "ard"
      ],
      [
        "a",
        "ce"
      ],
      [
        "Ġe",
        "at"
      ],
      [
        "Ġne",
        "ver"
      ],
      [
        "Ġth",
        "is"
      ],
      [
        "ĠA",
        "nna"
      ],
      [
        "Ġp",
        "ret"
      ],
      [
        "ot",
        "her"
      ],
      [
        "d",
        "y"
      ],
      [
        "au",
        "se"
      ],
      [
        "ĠE",
        "very"
      ],
      [
        "b",
        "y"
      ],
      [
        "a",
        "k"
      ],
      [
        "Ġplay",
        "ed"
      ],
      [
        "Ġp",
        "ick"
      ],
      [
        "M",
        "om"
      ],
      [
        "i",
        "on"
      ],
      [
        "et",
        "ter"
      ],
      [
        "Ġhug",
        "ged"
      ],
      [
        "Ġex",
        "pl"
      ],
      [
        "he",
        "re"
      ],
      [
        "g",
        "e"
      ],
      [
        "Ġc",
        "om"
      ],
      [
        "Ġg",
        "re"
      ],
      [
        "Ġj",
        "ust"
      ],
      [
        "Ġn",
        "ice"
      ],
      [
        "Ġbo",
        "x"
      ],
      [
        "Ġman",
        "y"
      ],
      [
        "'",
        "m"
      ],
      [
        "Ġne",
        "ed"
      ],
      [
        "Ġwa",
        "t"
      ],
      [
        "ot",
        "h"
      ],
      [
        "Ġst",
        "r"
      ],
      [
        "s",
        "ed"
      ],
      [
        "Ġbec",
        "ause"
      ],
      [
        "Ġof",
        "f"
      ],
      [
        "il",
        "e"
      ],
      [
        "g",
        "ry"
      ],
      [
        "Ġsm",
        "all"
      ],
      [
        "i",
        "z"
      ],
      [
        "Ġb",
        "u"
      ],
      [
        "v",
        "ing"
      ],
      [
        "Ġl",
        "ong"
      ],
      [
        "Ġj",
        "o"
      ],
      [
        "Ġs",
        "n"
      ],
      [
        "in",
        "e"
      ],
      [
        "Ġf",
        "o"
      ],
      [
        "im",
        "al"
      ],
      [
        "Ġan",
        "imal"
      ],
      [
        "Ġbe",
        "ar"
      ],
      [
        "Ġt",
        "ry"
      ],
      [
        "oug",
        "h"
      ],
      [
        "u",
        "c"
      ],
      [
        "or",
        "t"
      ],
      [
        "ur",
        "t"
      ],
      [
        "Ġlearn",
        "ed"
      ],
      [
        "Ġu",
        "nt"
      ],
      [
        "s",
        "el"
      ],
      [
        "il",
        "d"
      ],
      [
        "Ġlo",
        "ve"
      ],
      [
        "Ġunt",
        "il"
      ],
      [
        "ĠM",
        "ia"
      ],
      [
        "Ġk",
        "ind"
      ],
      [
        "f",
        "t"
      ],
      [
        "Ġb",
        "etter"
      ],
      [
        "Ġfl",
        "ow"
      ],
      [
        "H",
        "e"
      ],
      [
        "ĠJ",
        "ack"
      ],
      [
        "Ġe",
        "nd"
      ],
      [
        "Ġt",
        "e"
      ],
      [
        "Ġ",
        "im"
      ],
      [
        "ur",
        "n"
      ],
      [
        "ĠA",
        "nd"
      ],
      [
        "Ġd",
        "on"
      ],
      [
        "v",
        "es"
      ],
      [
        "Ġc",
        "le"
      ],
      [
        "Ġp",
        "u"
      ],
      [
        "Ġc",
        "all"
      ],
      [
        "Ġb",
        "est"
      ],
      [
        "ad",
        "y"
      ],
      [
        "ar",
        "s"
      ],
      [
        "re",
        "am"
      ],
      [
        "a",
        "ut"
      ],
      [
        "Ġa",
        "d"
      ],
      [
        "Y",
        "es"
      ],
      [
        "v",
        "ent"
      ],
      [
        "Ġfa",
        "st"
      ],
      [
        "Ġcare",
        "ful"
      ],
      [
        "ur",
        "p"
      ],
      [
        "ard",
        "en"
      ],
      [
        "Ġg",
        "arden"
      ],
      [
        "Ġ",
        "C"
      ],
      [
        "Ġbe",
        "aut"
      ],
      [
        "Ġf",
        "i"
      ],
      [
        "T",
        "h"
      ],
      [
        "b",
        "er"
      ],
      [
        "ĠJ",
        "o"
      ],
      [
        "Ġsk",
        "y"
      ],
      [
        "Ġthan",
        "ked"
      ],
      [
        "Ġb",
        "ra"
      ],
      [
        "Ġj",
        "ump"
      ],
      [
        "Ġe",
        "ven"
      ],
      [
        "i",
        "es"
      ],
      [
        "Ġl",
        "oud"
      ],
      [
        "a",
        "se"
      ],
      [
        "p",
        "t"
      ],
      [
        "Ġb",
        "y"
      ],
      [
        "Ġlaug",
        "hed"
      ],
      [
        "e",
        "m"
      ],
      [
        "Ġc",
        "he"
      ],
      [
        "in",
        "y"
      ],
      [
        "ĠS",
        "o"
      ],
      [
        "ĠH",
        "er"
      ],
      [
        "w",
        "n"
      ],
      [
        "sel",
        "f"
      ],
      [
        "Ġg",
[...]
